node {
  name: "global_step/Initializer/zeros"
  op: "Const"
  attr {
    key: "_class"
    value {
      list {
        s: "loc:@global_step"
      }
    }
  }
  attr {
    key: "_output_shapes"
    value {
      list {
        shape {
        }
      }
    }
  }
  attr {
    key: "dtype"
    value {
      type: DT_INT64
    }
  }
  attr {
    key: "value"
    value {
      tensor {
        dtype: DT_INT64
        tensor_shape {
        }
        int64_val: 0
      }
    }
  }
}
node {
  name: "global_step"
  op: "VariableV2"
  attr {
    key: "_class"
    value {
      list {
        s: "loc:@global_step"
      }
    }
  }
  attr {
    key: "_output_shapes"
    value {
      list {
        shape {
        }
      }
    }
  }
  attr {
    key: "container"
    value {
      s: ""
    }
  }
  attr {
    key: "dtype"
    value {
      type: DT_INT64
    }
  }
  attr {
    key: "shape"
    value {
      shape {
      }
    }
  }
  attr {
    key: "shared_name"
    value {
      s: ""
    }
  }
}
node {
  name: "global_step/Assign"
  op: "Assign"
  input: "global_step"
  input: "global_step/Initializer/zeros"
  attr {
    key: "T"
    value {
      type: DT_INT64
    }
  }
  attr {
    key: "_class"
    value {
      list {
        s: "loc:@global_step"
      }
    }
  }
  attr {
    key: "_output_shapes"
    value {
      list {
        shape {
        }
      }
    }
  }
  attr {
    key: "use_locking"
    value {
      b: true
    }
  }
  attr {
    key: "validate_shape"
    value {
      b: true
    }
  }
}
node {
  name: "global_step/read"
  op: "Identity"
  input: "global_step"
  attr {
    key: "T"
    value {
      type: DT_INT64
    }
  }
  attr {
    key: "_class"
    value {
      list {
        s: "loc:@global_step"
      }
    }
  }
  attr {
    key: "_output_shapes"
    value {
      list {
        shape {
        }
      }
    }
  }
}
node {
  name: "global_step/IsVariableInitialized"
  op: "IsVariableInitialized"
  input: "global_step"
  attr {
    key: "_class"
    value {
      list {
        s: "loc:@global_step"
      }
    }
  }
  attr {
    key: "_output_shapes"
    value {
      list {
        shape {
        }
      }
    }
  }
  attr {
    key: "dtype"
    value {
      type: DT_INT64
    }
  }
}
node {
  name: "global_step/cond/Switch"
  op: "Switch"
  input: "global_step/IsVariableInitialized"
  input: "global_step/IsVariableInitialized"
  attr {
    key: "T"
    value {
      type: DT_BOOL
    }
  }
  attr {
    key: "_output_shapes"
    value {
      list {
        shape {
        }
        shape {
        }
      }
    }
  }
}
node {
  name: "global_step/cond/switch_t"
  op: "Identity"
  input: "global_step/cond/Switch:1"
  attr {
    key: "T"
    value {
      type: DT_BOOL
    }
  }
  attr {
    key: "_output_shapes"
    value {
      list {
        shape {
        }
      }
    }
  }
}
node {
  name: "global_step/cond/switch_f"
  op: "Identity"
  input: "global_step/cond/Switch"
  attr {
    key: "T"
    value {
      type: DT_BOOL
    }
  }
  attr {
    key: "_output_shapes"
    value {
      list {
        shape {
        }
      }
    }
  }
}
node {
  name: "global_step/cond/pred_id"
  op: "Identity"
  input: "global_step/IsVariableInitialized"
  attr {
    key: "T"
    value {
      type: DT_BOOL
    }
  }
  attr {
    key: "_output_shapes"
    value {
      list {
        shape {
        }
      }
    }
  }
}
node {
  name: "global_step/cond/read"
  op: "Identity"
  input: "global_step/cond/read/Switch:1"
  attr {
    key: "T"
    value {
      type: DT_INT64
    }
  }
  attr {
    key: "_output_shapes"
    value {
      list {
        shape {
        }
      }
    }
  }
}
node {
  name: "global_step/cond/read/Switch"
  op: "RefSwitch"
  input: "global_step"
  input: "global_step/cond/pred_id"
  attr {
    key: "T"
    value {
      type: DT_INT64
    }
  }
  attr {
    key: "_class"
    value {
      list {
        s: "loc:@global_step"
      }
    }
  }
  attr {
    key: "_output_shapes"
    value {
      list {
        shape {
        }
        shape {
        }
      }
    }
  }
}
node {
  name: "global_step/cond/Switch_1"
  op: "Switch"
  input: "global_step/Initializer/zeros"
  input: "global_step/cond/pred_id"
  attr {
    key: "T"
    value {
      type: DT_INT64
    }
  }
  attr {
    key: "_class"
    value {
      list {
        s: "loc:@global_step"
      }
    }
  }
  attr {
    key: "_output_shapes"
    value {
      list {
        shape {
        }
        shape {
        }
      }
    }
  }
}
node {
  name: "global_step/cond/Merge"
  op: "Merge"
  input: "global_step/cond/Switch_1"
  input: "global_step/cond/read"
  attr {
    key: "N"
    value {
      i: 2
    }
  }
  attr {
    key: "T"
    value {
      type: DT_INT64
    }
  }
  attr {
    key: "_output_shapes"
    value {
      list {
        shape {
        }
        shape {
        }
      }
    }
  }
}
node {
  name: "global_step/add/y"
  op: "Const"
  attr {
    key: "_output_shapes"
    value {
      list {
        shape {
        }
      }
    }
  }
  attr {
    key: "dtype"
    value {
      type: DT_INT64
    }
  }
  attr {
    key: "value"
    value {
      tensor {
        dtype: DT_INT64
        tensor_shape {
        }
        int64_val: 0
      }
    }
  }
}
node {
  name: "global_step/add"
  op: "Add"
  input: "global_step/cond/Merge"
  input: "global_step/add/y"
  attr {
    key: "T"
    value {
      type: DT_INT64
    }
  }
  attr {
    key: "_output_shapes"
    value {
      list {
        shape {
        }
      }
    }
  }
}
node {
  name: "tensors/component_0"
  op: "Const"
  device: "/device:CPU:0"
  attr {
    key: "_output_shapes"
    value {
      list {
        shape {
          dim {
            size: 2305
          }
        }
      }
    }
  }
  attr {
    key: "dtype"
    value {
      type: DT_DOUBLE
    }
  }
  attr {
    key: "value"
    value {
      tensor {
        dtype: DT_DOUBLE
        tensor_shape {
          dim {
            size: 2305
          }
        }
        tensor_content: "\320\256\177\347\363L\201@0u{\263\230W~@@\252\023\317\021gy@k+C\350\340g\177@\272\035c\372_\327x@\243\330\241\333j\006x@<\271\024\221D@\200@d\206u\010\204\322s@\311g\362\020Z\253u@\256\177\253\322!\357v@\340\353\210\330\275Z\200@\005\032I\003\035\010~@\316S\366g\306\267|@ \220\005\333\222\322y@\354\2226\n\223\231w@\220\230\026\013\204\233~@\322\304\253\370kmu@`\244\312@\374by@\022\265W\342\264\237{@\243\242\207\013\032\340y@q(\n.\374[\201@0mIE\274\'~@\356\346#\320%\003v@\214#\257:B\252\200@2\\\250\370I\252\203@\231\177\314\240\241}x@XMX\t\243#\204@)!\022\277\326\242}@\233\364l\036\362du@\273 \031\001\000t}@=\215\326\210\344J\200@\302\214\302\322%F}@\233\304\364D\212/\200@\027\370\263CP6x@\'\253t\262\302\010\200@C\036r\302\324ou@\225\214V\334\004u\177@\217\300\331\334::y@6!_\213B)s@7\276\006\244X\t{@\003\221\230:a\354\201@\272Bw\275\243*z@\325w\254\013\313\236\201@\020\275O\255\345\013\202@\273\266@\247\334\177{@[FD \245\372\177@\307\253\232\372\300?\201@\203\376\264\"\271E}@$\255\2737\024\tt@\354\310;\270\026zu@\367\257\022l\350Zy@\377\314pB\243R}@\261nir\317\361\201@c\032\003\270\034\257|@\243\253\242\320\027R\200@\234\243\032+g\260z@]B?\346\321\314}@\247\355\375\315\200\353y@\t\200=\023\236\351\201@\257\244\367\333\215gv@|\260d\250\255Mz@\325\350D\265I\010\202@\376!\225\346\316,\200@\304\013Qoo\016\200@Q$8T\367k\201@\242\321\237\351\333\234u@\240\221\252\244i\374z@\261\213\322\242\202\342x@\035\303\273\221\334]\201@rl\025ag\365z@\275ww\317\232\027\200@\271mC\233\001\355z@\025\025\225\r\025\343~@\2462\276\336\035\030w@\360\266\263\200\333\275~@\035\376\320,\323x|@G\325\313T\177\216\200@\010\326\226\214^a|@\354\243ik\005!\202@\004Z\030\2745\024w@p\241+\010\307\370w@\254\017\216-\353zx@\236\3754\325\t\355z@?\373\007\251(=\201@\346\001R\013s\260\202@\2427/5\307\326|@\017z\221\333\225k\200@\217[.\2603T\200@\235U\260\340\260$\201@\316\'\377\371}\377u@\353Y\203\3220k|@ZzA\257\220\367~@W\345RK$[|@\205\247\264Z\304\010\200@\033\264\363\007\231\321u@\340&TV\271\220w@\371\250g\340\3131\201@\302\250\356\355c\363|@\271\202\006\365^qt@6\016\265\252\031\225v@O\337\260\253\320\016\177@:\365_\032\317\373y@\307\037\335\277^\331{@\301$\336\320\'\273y@\243\367\323+\270\307u@X=\002\337I\373v@\273\214\327\212I8~@\270\033\242\362\217p{@\214\246\323=\377\353x@\252r\264\343%3\201@t\305\370\222\336Yx@\374}\207\256\314[\202@[\355y>\224W}@i4;\203\'mv@\264\303\255\237\210\336\202@\240Ew\210\237\315\200@f\370\316\263\352c\200@?1\340\022kIz@%a\004\341u\005v@\251\214c&\3604~@I\230\247y\0134\201@:S\031\305]6w@\010NO\350!\033\200@\211\331\003\301\360\377y@\330\211\305\314/\031\177@\376*\025\360+cw@\016\331^\032\000\201u@a\244\364\306\300\317|@\362,\202\325\200sw@\"\t/k\315\201\200@\035\240\267\005p\313v@(+\300\"\266Y\204@\307\334\377\260\210\361\202@)\261\264d{\236y@\'9\312\301\3074w@CU\026\242@\343x@\306\246\372\215\204\001\203@\251\225U:\327\014y@\330t\'\223\020vx@\035a\232\227\301\261\203@\262ZO\233\034\025|@\362\310\230J\302Tv@\023d\014J\223\337z@Sz\373m\334\250\203@0\032\177\202\267\274\177@8\362\204\350T\342y@\347\261\000\205\360\276\177@\356\254$\010V+\200@\262/\221\376\212Y\200@q\307*3F6v@ \357<4\275\220{@pbK\276\261Wz@\036\002\344\245\247\201|@g\255\263\270\312\344u@\302SK\212lVz@\303\326\331\241\341%}@\241\337\233\204R\364z@k\030gt\274\350\201@\037>s{\314o{@\2634\213i_\003\201@\365\201\006\003\035\"\202@\227\353n\300\022\213{@\365\256\303\341\304l\201@\003\026\233\337|O{@v\206\303\343\221\321y@B\223\246\222\001}{@{\352\334\365\021q\202@-\252\356\204\334\322z@\206\350\356\3643\034{@\250\351\374\275@\347|@\317e\352G\303Z\201@.-\255\035\347Mx@BFV\304\013v\200@\0008f\333\336\346w@p\004tdS\264z@\326oJ\264\246 |@\261\203M|\316O\177@b\000\212\340(\353\200@At\370\217+\204u@\261\326>Y\224\306}@\220\327\275]\351\257|@\002\271#\r\241i\200@^O\002\276M\377}@\277\261\366\316\264tx@\377\332.\225\002kw@1\360\340\324\243\010w@\0131\341\313\023\307z@\312\033\315\233\020\035\202@\257\226\201:\030\007\200@\226\212\300\324\267\343x@\243\212\342\274\025\326\177@\030\272\275Z\356R~@\000$5I?\236{@\'\277\236i\317{\177@\312\347/\232\327\252\200@\325\'{\330G\"w@\n\271e\020\327\371\202@\271;\301\240i\034\204@\020\305T\367\307Nz@\317\244\324\317\311\333\200@\006\306c\320`]z@\375\365\"\254\216\314|@\321(9\304\352x\177@`\200y5\275\370z@g\225\007\312\002vz@\262|YV\001\241\206@\360>\335\204\025\305v@\032\255\214\021\005\246\177@k\326cD\336\252s@\336\334\no\300zw@\230\240\317T\243\205\200@gh\350KSj\202@>H\2369\274\347|@XUR\344CB{@\371@U2Qi}@\030?\325D\322#~@@\370\263\234\027\021|@\026\"\317o\235[}@\216?\035g\224j~@\2328\230M\311\005}@\350\033\371S\252 }@x=\331K\312dz@\277\267D\240\370\201|@\261\210\037\313\322v|@W\255\337^u\234z@\243\304\252\311O\345}@\256\204\020\271m`\200@%\322\276\341\017\\\200@\267\n~,\000\201\200@\201\331\305\256\314\022\200@\021<\252hJ\352w@\340H\024a\222\234\204@\007\"FD\007\253\202@t\307\275\t\321^z@@\261/\013\326\240|@\351\323\354\006I\342{@\212\365u\233\221K\201@\203\321W\232\233\237~@f\304\201+R\243\177@\'\235}S=\244w@\3738\221\004\306\r|@\030\016h\004\204\351z@\3328\001J\357\235\200@\240\344{uQw\202@\226\202\277\377n%w@\226\257\025f5^\201@\312+\341cy\007w@\224\235\034~\321\353}@HD\"\320\216\027|@\320\203\275V\021\277\201@\336\214n\014\351\254\203@\213\204Rj\313\206\202@\366\341\033\331R\231\177@g22|\037\305|@\310\261\315\020\307!y@\324\275\\\355\353x|@\033/\235\001U\232~@)\362\327\377\032\312\202@\000A\242\371\367\346\201@\300\342\204\347\353\242\200@\277R\202\254[5\200@dq\274(}p{@Ze4\336\341\020{@\337\205:B\026\270}@\r\031\t\266M\317r@\224\235E\216\245Yy@\3530\303^\336\260}@\365\300\240\205\003\352\200@\315\330\317\376\240~}@\304P\375\235\256\236\200@\304\340\321\273\333\273\177@\014_\224g\311\261\204@/\265j\370\205\332{@c\264\010\261\250Ht@5q\26271.w@N\322\306jkpx@1\253\306Kt5y@\363A\233\312BL\202@\377,\374\231\205\275~@\262\034\225\032\023\375~@\212K\203\006\035\215\177@ccyC\351\004{@\204P$\366-+\200@\233\030\211;\321y~@{\314\036~}\317\202@\323\244(\204\262\014\202@KX0O\255\205\202@\017\037\255\020M\363\201@\251/\276\210\022\361v@\025\363\335\010\030\232\200@\316<%\375\023hz@\373M\211=/\363~@g\2278\266\355~y@=}\356\325/az@\303\215\357\266h\254\201@e\245*d\211A~@\206\247-j+\250\201@v\006\0358\264\213\201@B\325%B\320\221{@\302\177\377v\025j\177@\255\255\035\250\361\320z@gCn\245\373\371z@\017\201\211\023\330\032{@\267\321\262\372\371\277y@\2464n\246%\005{@0s;\254\003\035\201@\325\327^\341\231\207\201@\002\000\342G\220\343y@\301\3079^V\236s@\261O>\002\261\034{@\255\261_6Gk\201@\326\214\243\272U\333\202@\n6\017\036\316\037y@\224\210]p\004y\202@&\243bd\260)\200@\017\246\317\305\032\017y@\202\307&(\023Gw@\264\370/\017\305\236t@\363V\350\310;{w@X\276\3059\230ky@\315\377\245\014w\006z@\371\305\213\254\217\030\200@\317\203\237VS\214\201@\025R\253\301/E\201@\326\257\241wg\207\201@\232\000\277as\204\202@\nbU\000K\373}@H\357\260\227`\311\177@\007\214\200\314\215G}@\231|\211\257\tN\200@\200\360}\212\217\263~@=\344~\021\242\347}@D:lv\206\320\200@To\256\202\252\207\177@r\324\321\035C\265}@\316\200cC\201X}@\232\326\267\351\023?w@\225e\311\341\026\352u@\n\362?\254\206\020}@\377\263\261_\304Yu@\000\376\352\014y\324}@fn\271l\327\236{@|\3603\014P+z@]\216?\tg\266\201@\224\233\000\353^\332{@G\227{,\327~\201@\213\327\005\221Q\036s@\3028\230E\021(\202@(n\253\001X\320\200@\255?\013R\321\006s@3\037\254`\014\347~@\367\246\026\225\3521\202@f\225\224\363E({@\363g8Og\204\200@\377\253\323\342\'2{@\251!-\263H\331\177@1|<\314\025_x@u8\006\230\355\334y@\327\376(\265\232\300\202@7\371\026\260\260\315|@Im*\326\013\001|@\005 V\326K\317\177@J[\276\341H\222t@|\315\016hT\261~@\nf\204\220\002l\202@\201\201\341\020\r\014\177@\373\306\3641~\307~@\304 e\357!\033}@6\327\375\364\247\037\201@\262[\234\272\006\005z@\215So/h\025}@\343\253\017\246\016(\200@p\327R\016l?y@\307\304\214\303\356\260|@\363\377\263\252\n\226{@\003\347\311\037\253bw@_\3145\333A\030w@z\311\351\250\\n|@\363\215\353@,\r\200@>\342<<\267\243}@_\257\373\315\346{\202@\252\324\245y1\204\201@ n\331\005\366-|@\260\221p\245sYw@\315@\013<\017\330\201@\217tw@\322\332\202@7\2368zB\346}@E\035\274dyV{@U\316\320\2256\362~@A\017\032+\203P{@T\334\243\314\0214|@;o\263\244h\343v@\273\227\235\240\216\331y@\303\207\034\277\022\374\177@\201\263\006\033\344K\201@\206\310\357\321[ny@\371\326\317\004H\204~@d\326\353d\267\225{@\2100\031\t\3643z@\314\254fd\371\263\202@\"\277|\312\353q\200@\370bC\236m<{@\3539x(\001]z@9\372\346P\2170w@\361\026w\023xK\202@\014\207~\347!=y@\300\231\006\210*N~@w\200s\r*\252}@\\\347\034\223~\017\202@\235\354n\277\t8}@\374*\r\266va\200@\246\271\312\313|#\201@o\244T\0318z}@\274\343\224\303\333)\201@\253\322z\331\005y\177@1\231\232\020:\035\200@2\305\260\306$\027}@\331%\014):C~@\255Vqp%/~@\301\251\0005\374\273\201@p\316\304G\217\214\177@\304\372\007J\366\206\200@\020\000\273,Z\253\201@\271\217Ql\310ky@\272\257\226\245\352\310~@\007\307\003\022\240\313{@\244\200\270\201\252\022\200@}\342\305\324\325z\201@\242\277\276\224\242?v@\265\345\360\207+\352r@\247M\322\324\241\314v@\375\260\212\300@]~@l%Koqw\200@M\224F?\361w{@\366\000s\251{ft@\254\375Z\037\255\022}@\220EYP\303\252~@\347\344\370\n\212v{@\261\014\246\232\027`\201@%\247\311\371\320\037\201@\202\363\263{O\316\201@\347\t\220\223bv\201@\363ZmEi\273\177@\0205`\326?\263{@\335t\322\315\373`\201@\220\365\'\000\246Rw@\205%\373m\006\360\203@\2535}\261\025\257w@|9\344\273\326{\203@M\356\024\233\365\204w@[\305\2463\260\251w@\273CN\204\336-~@|u[\344J\215x@\327\020@c,pz@\"\224\255m\337~{@fUM\263^\346}@s\363#\356B\241|@B\271M\274#\202\200@\374\233\275\370\326\250x@^\321\241i\024b\202@\202\374\027\317\352\247x@\000\036\255\260\221\006\202@N\266\303\354u\001\200@o[7\244\3633\200@3J\357\371\265E\201@Z7|\031{\354~@{\230\214(L\242v@\350 ~}\241\204w@\276^V{\240@\203@<\006P=1xy@ \364\277\366Gj|@\302\375\342\313\230\374|@\205\367\233\310@\216}@Xl\350i2K\202@\3162V\231\245&\200@\324\301t\t\177O\203@]!R\367\316\203z@2\211S\260\231;\200@\340\026\220v\354L\202@v\261w\322\316\300|@\031\024\204\026\260 \200@\256\225\320\230\312L|@\226\300\212+`\231\177@\312m2\373S\034\202@\250\367\020]Pb~@!\340\310i*\017|@D\266\245\314\374\306\200@s\346\\?\325vv@e5E\366c\nw@3\304\'\217\004/{@\020T\002<iYy@\240\003;Fk:w@\316\3017\025\320\\~@s[\213\221\013N\200@\006LL\344\234\376|@[\n\r\315\231\272z@\032\356H\324\316\325y@}\211\244\004A\330{@\306\242\003\201md\205@\031\234n\367\312\300~@\331\271\325Q\327\002|@7\357\274^\227\247}@Z\022\014+zy~@\006i\023g\363\372z@\312\357d\373\225|\177@\221[1Xl\232z@(\344D]|\023|@\363y\3604\302\241|@)\354\367-+\314~@\206\377mGuv}@\340d(\245\264$\201@\262\346Yo\236\324x@\324\377\315\251\224\337|@\000e\006\032\264\210x@\346\203\242\203\241\351x@b\215TMkw|@\241I[\037L9}@R\021\356\014^\327|@\304\357\336\\\275[\200@\304U\343\334\300\275~@g%ze0\252\203@\207\331\220/k\264\177@`s\321\304]\030\200@\270\271\021d\374\333{@\365\227&K\322\035x@%qq\224\240\017\202@\207\363\253x\031\362\200@ r\216\0039\034\202@\353+S\333\334\240y@\315\353\\q\333\246\177@\244n!\310\203\203\177@\251\367\327\275\340\360|@C\022y;\351o}@8\221\020O\020/v@\211\022\210\334\032\r\200@\327\346H\203\336\\|@\212\230\301\315o\017\201@ \037\325|\236\357~@\350\351\231\3015\323}@X\364g\006\332\201\201@\025\225\031|\225)y@\032\\b\037\017\023{@i\360\255v\330\205|@wV\224\241[*}@7\267\302\266\370\342}@\363\220|\361\013S\201@;\252d\364\213k\200@\255Z\343\277\304h\201@\247\003%z\\x\201@\372\266\360\242\3420\177@>\365\351\374\333\201\201@\334PZ\314\367\353}@\3631=\242\256\253|@\252\321e\215Hm\200@\334\245_\335<>}@\332\263\340T\2045|@I\022\364\000z\020\201@\363\010\257m\222K~@\024\250\344[\023Z}@t5M\177\'\303|@\237\271^\346\261\201y@S\237\005\023\340\370{@\000\353\214\341qY\202@\265\326\t,\227\306s@W\236\216\213U\002~@\342\251\301>\345\014\200@nF\227\362y\377~@\225\262\245\267\202\225\202@\032\037X\222\366\362}@\205\265:?\254\r}@\027r~\024UOy@\355-\340\032k\005z@\311\262\013\224\347\326}@\274\231\236\307\235\271\201@X\337FA\336jy@\223Q\350\026hZ{@\272\036\262\210\215ow@#E\320\202\033|y@\352\034\232:\255\326y@\220\337\246\306\303\205{@Q\230e^\312\272\200@Nqu\231\271\037}@\317\343Y*a\332|@\201-8\346\010\270\200@\246\2113s\362\267y@\301T\316\342-,v@\034:\007\311\212y\201@\374\212>x\373.~@\244u\027\240\264[{@\315\253:\014\364^}@A)&b/T}@#\031L<\256\ty@\356C\354\300J\271}@\213\263\327\270x[~@\r~\016\005\355\242z@\036&\307\325\345\034\201@\246\360\331\217\264\222~@\345\363a\374vly@\010\20253\365\253y@\207\313\037\037[`\200@\345\255\321*/\361x@\030\245F\360\307#|@9i\'\320z\377t@\007FmA\325\335|@\205\321\260\301By\201@0Ljs\017\201{@\327\311+\342\277\360z@\\m`B\256c}@Q;rsV\247w@\310L\007-_\302w@\013\236\321\301\211\264\201@\r\215\265\243\215r|@\376I\20076s\201@X\0231ws\205\203@\300u\237\200\014\274\200@2\035\312Z\"Tw@\\\211\234\347\334\274~@\345\0070\322\177\345\200@\277\260\344B`j\201@\000\361\201[\266\342\200@\236\355\377\035\203\006\201@\204r]=y\273z@\323}\366l\201\020\203@\003K|\366|hs@\3074\224q\006\334|@\3747\363!y\215\201@\037H\t2\r\366{@\000\021K^=\t{@\336\327\026.\373\246|@\350j3J\357\'|@O\310H`\310F\177@\270(P\013e\277\200@\366%\177\310\n\345u@\266K\013\235\214_\200@|\033\204\216\366\242t@\222}\221\340\341\243z@\177p}\3211\355\200@\362\002O\237o\263\201@\333\315\234?\032\205|@\223\341\250\027\233k~@\263\310X\000\2513\201@i8e7;\233}@{\370\226=\243\202u@\301\236M~\321B\202@\372\242\236\t\207\017\200@0HH\310\003r\202@\024!\272\003Y\227\200@\347y\001Z\314\313y@\327\304\314\327\226]x@\220){\210\275\010\201@\2736v\325\357\216~@\030\211\363mv\324y@\212l\227\222J\356u@\020\\\025\215Vt\203@\261B3\353\346\376}@^\362\022\310\360dz@\340\310\214x\347\277z@\275\202\020fg\300z@^8\344\353\016Ww@\031E\310\024\254\001y@m\236)\033\272V\201@\317\2572!\206\252\201@D\031nfw\263~@W\203\301e\022\235z@\270\266i\343\362\204|@\236\216\375\t\213\272\201@\t\013\2633}l|@\343\367\202,\001\255\200@\351\336\262\n\354\326|@~\021\216\205\215%\200@\215\367\032\3735(\201@\3238rX_\263\200@\006\036\335\311\250\346\201@\367j\246\021M_~@\001\225\331$\303\320w@\025\201\202u\251:\200@RP\014vqf\201@\371-\014\177\000\355{@%?8\242\246\027\177@G\350\340*\3076\201@H\227aB\304?\201@\225\302v3l#{@zW\177J\001\255\200@n\005$L\034\271\203@\377H\022\351\352\237\202@\025<\341\370s\307\200@H\266\242\257\365\327\203@\010\360 R|U\200@\317\002;s\204\345z@\2568\2377\271^}@7\257\353w\215\265\177@\345xD\001\240i\201@\360\311\364\376\320\366}@\004T\032\264\222\235}@\360A\"\340\201\262\177@5\300\022O\206\226y@\213\035\3112\245[x@W}\311\010\"\227\177@\027\233\315yb\204\177@Wt\300\211\242R|@\231\t]\246X\031\201@\356P\t\270\214?\200@\022\241\204\035\036\365v@<b\tr<\271w@\2569UM\027%y@\027\260\027\244\002\247}@G-\262,\205\205\200@\350\265\326\r\007*\201@\262\236T(]\235s@\034\230%\242\255\253{@\324\317\222g\352\244}@#\236.KxJz@\005[\0320\024e\200@\005I\2038A\003\177@\252\243K\236\353\210\201@:\361\374%\362Ez@\256\206\340oo\270\177@h\313\262O\237d\177@\202y\3438\263\037z@\354\017W\006q\307w@\243\007S\257\001N\201@\253\325\371H\336\215}@\223\275\237\2332\367r@\004\225\206\277\237lz@\247\2100\356\025\000z@\2441\224\013\2706}@c\356\223M\344x|@\354\247jb\236\252\177@Z\022v86\317z@\027a\355u\376\007|@\350\215<<\207;\177@\356\375\034\016xq\200@m\342\033\347\320\276}@U[\220\026\333\014|@\276\351\371iz\226}@`={/.\330y@\204\031\002\272\254\342~@\320\356j]M\304\177@f^\"\365:T\202@sO\355x\335\200~@\214\313\333\002\233\320~@\303\306\222Mb\352z@\033B+E\036\276{@>N\311\031r(\200@2\000\223{\301^y@\271\t\205T\241U\177@\201\207\251\314\257\363\200@\252\007\333T \354v@\236X\213P\224\226\200@\023\323\217\r?\240z@C\252\006\332\203@\200@\257\236\277\367\360r}@\3754\2106\270Y~@ \214\260\377t\010\177@\237\020Xn\316Z|@\203\207b\203 \377\177@z\001uEj\031\200@\261\001\3426\0147w@$u0\363\262}\201@\275Y/\006gSx@\343.)\261\302\300z@i\377\332\331\n|}@\222\374G\231\322\037~@J\035.\316.\212\200@\034\300\207M\017\244y@\nF\347p\230\337~@gL\352\325h\365~@\216>\356=\003E\201@\304\0139\210\0134\201@n^\326k\254=x@`.\253.\367\363\202@%\207\347\322\372R\201@\216)I\266g6{@W\342\033\233\305\025\200@\240\207\353w\356?~@\032\001\037<!Ez@\"\265?\231\"\003}@}R\027t\341a}@\214\321\341\313\273\374\177@\363\262\273\325\354\263w@\352F\207rQYy@\304\333\202K\372C\177@\204O\226B5\321w@\260\3241\025s@w@\256\337o\3418As@SN\312\367\370vr@J\313\347=\033\330\202@S\205=\272\000\225p@\021\t6\236S\372x@\363\010\013\325\271\211\177@\234\206Tb\026\230\177@\307\205q\352>\336q@\274\r%\024CUz@KW\362\013a\001\201@p1\212D\230\331s@\311\003\026\353\253\261z@z\312H\311Z\336u@\013\346\270(\330t{@\032\005)\344\376\207r@\353\001\247\253[\263u@\206\372\333/B\257}@\322\316\334\260\312\002}@\017f\206X\000\305{@H\036\020{c\326t@\276\345\351x \376y@\345#\310;\232\262v@\247\323],\035\027x@\rw\244k\021\311\205@\177\341)5-\304|@\025i\343p+\211x@\342\331\021\354K\225{@\016\020\364\t\337\326t@c\027Hq\300\003|@\205\265\367\370\224\317t@u\235aJy\347w@\263\322$\277J\346\177@,\203\340\2002\210}@\2656\363i\336g\202@\231\206\266])\246|@\310\372#\3104\222|@\255j\320\360p\351z@\315\013R\226/!{@\312\212\372\0107\303z@QO\3426\014\223v@`e\370a\243E|@\013FQ6\274\347|@\030\325\323\364Q\264y@\336\222\340i.\274r@\032\005~Cq\374\177@\311A~\374\377\225v@\264/j\300\342\316v@\204\000\374\254A\371|@8\351\201\203\365nq@\264h\004\345\364\311r@dg\016^)ux@\211\351\244=\240&s@\177U\256\201\254\n}@^\276*\326\314~{@\266_\327\275\214\236~@&\'\'\030\342\017w@\346\215Nt\323\001|@_9A\306\325\214z@\206zR\232\271\370s@B&\327{\366u|@\211#_\2051^~@0\213\220&\331\002x@\363@:/{Uv@\313$\t\273%\320s@\304.$\326\314\t{@\327\266\271\334n\230\177@\177\010\201b\201\371p@\354\367(\355\275%\200@11\354\200\264\320w@\327p\014\274\372\313|@G\345\304\305\312\245t@\212<\323\310\234\036\200@\214\306\034\n\362\320w@\261\246m}>\362\203@\001>\277\005\236\355{@\010D\243\362\',\200@7N\017\250\225\300r@\3450\300SZVw@\276P\276\3055\234~@\031\375\245S]\367u@g\373\365\210\321\333}@U2\322X_\201y@\006\n\357\375+\211s@\026J\024O\331\310}@\014zD\'\276\204z@\366\3177\203,Er@\037\321\375\347\326\236z@\322\350f\200\244@v@\n\274\366)\203\000\200@\362Z\'\272\016\\r@\3676s\244\233\234{@\202\036\331I%Sy@\032\301\214l\274xp@\236\360\312\312\240\035w@\013\354\222\203\001Y}@\340(d?sM~@\211/\213\215S\257}@7\265\273\317\2533{@N\032\306\025\311l|@\311\375x\373\302\307u@b/\"\022\201_|@\014ZgE\021\361v@\273_\361\266a\010{@\230\325:\307f\227|@*\010\004\255/\204{@\266\001\034[\"\230~@\307\346\rE\354{\177@\016\030\221\224\257\263s@[\372\252\230Q\346t@\365hv\236CAv@\354\221,\r\014\344v@1ZRt\331\020{@S\247Vo\364\202\203@\2755\030s\340\304s@\201v\264\3719\220u@H\021\265\372%tv@>\344K\365\227\377r@\270\005\2412\200\351|@=\245+\267\242\373u@g\251F\240p\270|@\020\316\316\024\254i}@Y5\3039*\037w@\361\200\222\006\261\306x@\2053\262\207\203\306\201@\000\010h\350t\337v@\334@\007xDfy@\023\\\344N\305\023p@kL\351\314\256\241\200@;\227\223\344\021\206z@W\017\024\227\\\371w@mF\261\343w+{@1\274\251m\\/v@]\215w\256\356\240w@h\233\014\244\236\316~@|\207\n\367^\300p@\346\257\310\250\232\007r@},\033\213\354nz@\231K\'J\013\004|@qES\233$\370z@J\221\270\353\317\225{@\366\257J\222\306y\177@\"\362m\343\026Py@6qG\n\263ms@#\013\346k\023\215z@\313\212j\271\246tx@@K<\214\020\202{@7\333\177\2559\001r@\220\177lr\344\306|@\336\374\316m\370V{@|\2051G\237\252|@-K\224\022{\023|@\243p\320\253\271ft@ O/p \326\177@t4\014`\337\246\202@<\300\024\260\202\346}@b\014\333\344\366\246y@\257\000\004\301\030Eu@B4\226\247\233\255x@\024\276\216\360N\362z@\213\204\362 ,f\177@1\013\304t\207\210}@y\235D\314\351jw@\375G\252\227\351\311v@\243\310\242\2646\302\177@\'css\264\013{@\317_\322\212|)r@q\241\r\204R\306z@\312\n_\327\374\246w@\353F\003\032_tw@DBx\301\303\373\177@\316b\232\367\261\212{@\206\377\374\n\004\254z@\364k\013\006=\340}@GbK-\337n\177@\246\331\211\250\216/~@\325\220\274\340\222\221{@\253\367\217\364\007+}@\341\017t\014Y\206y@\255\024\031_\260\236u@\211\031\336\177\005?}@\244\227\010a\352\224~@\300d\323\373Kqw@\r\331\217\026)\004|@\357\354\027\207\025\306|@\314\222\2437\001\207v@>\037\277\307HVy@[P\346^j\201t@0\301]<\301i}@R\277,nz\030~@\007N\035\024(1y@\242\021\360e\214\037w@\037\350\342\332\206\375u@\217\274^\202\001\021\201@\244/\032\246\207k\200@\020\035\231\312\005\352u@\355\247\\\000\350\371r@\035\342\355\024\033\223y@\201\222\236\350\325~w@}J\345\007\262\033r@\2558J\025\240ex@_\215\3378w\357v@\340a\'\020E|v@\316\2459\204\250cx@\325Vs\"pk~@\376\'\007\245\355\343r@J\026\367E\243\244}@\036\036\247/\3656x@.\211\211\214<\373z@\222N\255,\026\271y@\037\201\337\325\242\243w@c\037<\256\276\036z@\313\3006\201\201%x@\003\261E{\347Jy@\035\266\360\374o`\177@^\002L\236\355\246{@\013\017\t\232\tNx@\343\205y\263\215*|@\374\322\372gqUu@!\370Q\207\331L\200@`7n]h\016\200@e7\251\020\243\326\200@p~A\347\032\223u@\352\267\364\354\201`t@\274g\251\276\374@z@z\245\314#\371\304u@\200r\177\267\312\267x@\222\276\202+j\347~@\337\031\340$\274Qq@\213Th\344/%\201@2\177\177\005\2773\201@>9\246\304\351\300\201@Y\307\206\243\2543\211@W\202\220W\272\355\203@#\244\372\263\373\304~@\202T\353\332\217\363\201@\013-,\237y\337\201@\225\333\253\251\330\245v@\351F/\274\303\315\200@\321\206\350\357\010\252\200@\363\370\037+1Pz@\374\2248\310\354\330\200@\325\"7\273J\003\201@\336)P\347\000\002\201@\300\001I&_\360\201@\2434=mA\353\203@q\265q\033\325\'\201@YB\005\356\300\233\204@\352\312\030\032e6~@\017V\014A\237\025\202@\025\213/\201\363\337\200@\321\004v\251\367\202\200@\"N!\035|Iy@w\276\330\013\333\253\200@\260F5\023e5~@=\003\260\016\020\366|@\254\2561\213\007,\200@\311\023\031\2703\235\201@=\277\374\027\204\376\200@\326!i\027\327\271~@\214;\335\242<O~@\324Z\\\202e?\204@-\022\304\223\212\233\202@\006\337v\377\356\233~@?\340\246\363BD\200@\272\0102\367\372L\201@\332I\001p\016\355u@\257\220\326\014\004\366\200@\377$J%{d}@\023\216\024 \177)|@\027\224\313\252\375\276{@\325f\202\'6\256u@\000:\024\276\324\t\200@hC\242\217N4~@D\362+\235d\021x@\211\034\025\372\337\236\200@\341\344\311\034/\352\177@7+\241\230\336\027\200@9\300\367\371\357\t\204@\364\310\202\024\272)\201@\373\222\007\316Y\377\200@\\\310i\241l\344\203@\034t\014\243\207Y\200@\236!\247\361\316\275\200@\270\032\230`A\222{@\3123#\3207\201\201@\212Bv\370:\277\200@H\357h\277>\263z@\204\2614\205\233\250{@$r\232\307\003K\200@\301\035\371H\305j\201@y\242\211\r\023n\201@\203|\340\266\344>\202@\2730v\'\320$\210@xB:\006\001\331\200@\242\010\021\244f\020|@\267\3579MG\336\177@\305\2537\217\220\306\201@\3029T\214B\034\200@\372\255\335\367\335\324z@[\321\013(c\177\177@\3218\236\336)!\201@\310\257\254DRo\204@\240\322!\256\362\270\202@\327\253\223\336\326\323\177@5\203\333\352\373\026\205@0\356%c\032\226\202@\300}\353s\235A\206@.3\004\3477}\201@eMS\256\032\347\177@\306\354\343\261k\016\202@\350!Ne\301\002\201@J\030e\354\213\215r@\2051H\354L\356{@\300\322\366\337\236jv@\276t#\312F\347\177@\312\007\311\245\345\205\201@q[m~\177\341r@\222</\304\034\231y@\272\330\210\177\023\200\203@\377\213\370:\242\213\200@\021\212J5m@\201@a^\310\345\256\022\204@\326\375\244I7\353\177@\276\2233\024\330(\200@\237\376\036gg\022\200@A\004\207\021\237\323\204@\014\366\342#\220\030\201@\337\305\232C\335D\202@\310\025\243\335b\346\202@\233^9U8:\204@\314W\2211x\321z@\216\200\032\033Va\200@\374\306\253\001\353ox@\n\036\225)\257\331\200@Fo=;%\321\201@(L\300W\'\332\202@%\230\275\241\000l}@\364O6\375M\207\202@\215`\361i\333,}@\321\357\002O\301\376\200@(\304\330\255s4\201@g\351\3726\247\277~@\273\325\'1\363\004\203@Z\223\346\237\362\002~@9iIe\227\331v@\310\217r8\326\005u@\315\207r5\202a\201@\256\350\311\217D\236\203@\305\220}\227B\231\202@9Z\265\016\247B}@^<h3 \316\177@k\275Dx\361\370z@J\373\333#S\375\200@h\266\250h\371\245\177@,\202\345/\t\303\200@\222\376\"Y\304\n\201@0%\304/7\203\201@\2426c\367W\205\201@\322\232\014\005\305;\202@h%\335\231>2\200@\223q:\242L\315~@b\260\253\225\306m\204@\221\345\333q\347x\206@?\237{\030\372\257}@\376w\016\203\210?\204@v\267\374@\267\010\202@\343\200\311\243L\003\201@\262D\244\241\374\377\177@\362|G\372\217\373\203@\316\267c\t\263\023x@\3131\267$\"\232\202@\346\036[\263V\261}@Pw\345\205R|\207@\276\272\310)\005h\201@K+\033\n\364\302~@\177A\352\202\343|\207@\342\376\205\214I\256\200@\207\022O~\3704\200@\n\250\253Y7\030\205@ r\275\t\2641\202@p\272\306\301O\264{@^\032G\037\'\027}@\336\334\272\240\177\233\177@cyr\350\031T\200@\\F7\257\231\316\200@\346\266B\316=\006r@#\257\341Tx0\201@\024\231\313\241\340\273\207@Q\237\266\375\203m\204@\200-\215}`\312z@#\335Z\243\256\225\200@:<G[b\271\202@}P\273\0066I\201@\017\305\241\000\220\241}@\243\352\236\307\0331\204@\023l\345S\027h\205@\000\206+\013\252\230\201@5\335\221\004\274~}@\373\246\003#\347\371z@\317\352\341\332\024\230\202@\230\361\033\206\342a\201@G\354~\333\351s\201@\312\313\260\205II\206@d\370\324\371\020\242\204@X^\335\224j\264w@\321W8.\374\310\202@\031j\374\303~\222u@\000\357h[\352l\204@a\353q\377\277 \205@\237\334-Y[\306\206@:n\204Q;\233\202@|\027\314|\325A}@\253\373\237\022d\260\200@\002dN\023\232\353x@\235T\313\337\276G\200@\276\211\2508\322\224x@\274\347\365\241\343\316\204@X\252\345\253u\245~@M0PW\325\363t@\010\327\034\315b\006\201@}\353\244\300n\251\177@\266c\225\333>8~@\315\335A\331v|\201@+;-\336\t\335~@\006\'w\372\022\233}@\227qm H\032\202@g\244\013\'JW\204@h\034\3755\273\n\207@\276\234_\371n\224\200@\227)X\334\023,\202@\343m$\263\362P\201@N\330\213!\3061z@A\215%o6\300|@\r\355J\354\220\377\177@!\350 M\022}\202@\310f\217\251\352`\177@\2775\330=\377l\203@\312\311\\\210g\327\204@^\372\334\2541\023\202@\276\2368\340\326$\206@\374\371\026[\000\356\200@\261\304z\237l\034\201@VL\216\3600_\201@I\267H:\357\225y@\242\231\220\267s\207x@3\252\026\353\256t\200@\330\023\263\214\3149v@\373NA\322$\247\204@\014\3175<(\365~@.;\306u\347\237\200@\027\230\276z\364\253\200@^H\356\"\207\254u@7\350Y_0\t\204@u\312\2722m^\203@\312\245\344\372x\261\177@\022\3762\271\230\016\205@\343t@\255]T\200@S}d7\023\323\200@\013\276\355\261\366\335\203@\r$\004\330)\005~@3F\200\301\366\366\200@?\\\2642\357\177\200@=\261\375\315\377\307\202@\357s\224\n~T\202@fu\247\3412z\200@}q\341\241\210\341z@\350\313CG\002\014\200@U\311\374V\345D\203@\2528\357VP\231\200@g\260\032\256\n;\201@ZE\023E\327\277~@\352}\244!q\321\202@\"4\376^\'\232\201@\217\321\3347\204\333~@9K/\007Wy\201@\315z\373\341\324\020\201@\353z\343\316\036\374\206@\207\013\021\330\325+\204@W+_o]\261|@\326I\266U&1\201@\256\265\227NF\265\201@O\253\2639\255Q\204@Sf+Fu\307\200@\211x\246<e\221{@=GD\345u[\200@@{\366\3258\302~@\366S\260\336Z\023\202@AHv\035<\211\203@]\357\007#o\316y@\232\257<]\226\240\200@\321R\236\265u\227y@\267\211\177\350\274\212}@\313\371\217\326\260/\200@\261P\271\'\267\003~@\006\014]u\326v}@\276m\322\014wl|@.}\024\021#zz@\222X\rM\352\204\177@3\206\264\266\325\367{@I\227f\240)\262z@\002\255\276)P@\204@q\203\214\351\274g{@\303^u\311\235\305{@\314 \016I\331\353{@\216\022fi\256\336~@$_\344\352\231C\200@\021\312\3525\231\234|@v\034#B\2133}@yzQ \356A{@\261\323\310\317\2305|@[\302#_\233;~@\244\374D/r\036{@\251\335L\206\330\236\200@\251\232\271\3711}~@M\317\303\034\361\242\202@q\205\364!>\262\203@6q\024\246\234Zy@E\341\351\327<7{@\361\342,\005T\340\203@\227b`\325\335e\203@\231\037Oc#\351\200@\337\037\340\003t\177|@f\301\241\216\306\366\200@1Y\340\006\270+\201@Z\356or\223\021|@\356Z\006\220~\347~@\346\016x\016af{@Q\355\215a\265\320\201@\177s\335&\036\014\201@D\026\004\266\275\350\200@N\251\237\2012\277\200@f5\020IK\033\203@\"\215\316\332\251\220\203@\330\342\356\327v\267\201@\272\323\021\n\275\332w@\034D\357\344\253\244|@\010+\272\210_\313\203@\250(\241\303\312\216z@\321z\023\240p\342~@\027J\306\034\237x\201@jy\034\307\276\235\200@W\373L\270\263\223~@6\200\267\001\016\242}@\314\315\262\300\216\000~@=[\025\311\036\n\202@\250X\264\362K\003}@\010\371\333\337\004l\204@\242\225\236A\275\\~@d\340\001\215\035\337}@\307\201\237\324\265`\203@\331b\264\313\034}~@\244\274]\361!,{@\330\313\262\342\343c}@\300\357y\037\3276\201@\240)\365\214\021\032~@\357\203=\265\227\243|@hY\362\347\315\206z@4E\006K\005\211\200@\225Yb\371\306\353|@\020w\n\240\310h\200@)w2\343no\204@z\370\"\377)\267\204@\030H%B\337e\203@`l\245\241\"y\201@ \374Rd\257\322y@\355\026\304(\347\013~@\250\345\326\371G\340\201@\372\006\344\017\2600\203@\332\323n;\377\001\204@\367?\205V\332\205|@\342L\334\200\210\203\202@\331K\000\366>\341\200@\277\007\262\r\200k\201@\"\201\273\203-\251\203@\310\322\236C\017}~@(\272|\243st\200@\242\036\301\232\321\344|@\313\325\3427=e}@V\273\232\305\266\016|@\330\206\313\274\005q\201@1\200\036aLS~@B\314S\277D\001\202@\300\\\310\361\327\251\200@\201yp\013\3443}@6\216\2023\220i\202@\341\236\207B%B\202@\274\350\004\274\210\206\203@\266\026\"q\215*\202@<\310\035\306\375\017\203@L~\264x+\335|@\355\253\345W\222\222\204@\004Z\253R5\317\200@\251\221\241\203\237t\200@\n\252)+\363\347\200@\356\002\n\221\n{~@\032\037\021\305_>~@\276\211\353\275\377+\200@\342\361O\'HW\177@\352\311zb3<\203@\271\320B\277\230D|@\221\334\337X\350I\200@\205\324\376\211\253\256~@\366\314ey@$~@\357\243\003\324O\366\202@\233\341\0216v\005}@\033A\356\005\330^\200@ Lk\237\340\257{@\267\317\243\315R\257z@5\352\'\207G\215\177@\232W\36496\030\202@_=\326\r\014\325}@\361\313\210\2734h\203@6\321iO\360\341}@\004\020\360\276\377!\201@+h\032\265\333\352\204@\206Z\251\240\005\270{@\334\330\370z\254\010|@Z\335\036\255\215\036\202@\224\207\177/+\215~@\0042\265\301\340H\200@/\370dS\n\205\200@\311\235\324\2046\274z@\252\246\036\324\324\320\203@ya\333\343KXy@\327)+E\3316}@\212\020\273+\313O\177@\346\226\303Jo\325\203@\352\030\206%\354\r\200@2&\220\336r\265|@\033b\0054\224\344\200@t\014\330\301\371=\201@O\202\267K\024\254|@\313-T\006u\266~@\377,C\320\300\002\200@\361\205D\0176\213\200@\306)r\010\226\236{@\376\262=\245<\357\200@\302}\306\237\237\002~@\370\206\005=\215[z@\212x\312\254\351\242\200@\3471\031T\367\000|@q<d\232=\'\200@\255n\350\364\3651\200@\257F\226Eir\200@t\344\023\246\3628\201@\177\262\323\331\352t\177@\204\031\264>\021\322\200@\235=\210\033\003U\202@\t\271\310?\367\007\204@\325\261l\355ME\203@e\t!`!1\201@5\274\241=\211\007\200@\2307b\226U\276z@,\273\265\215\274\352\203@>T\373\310l\025\203@r`\305\246\331{\177@\256\355\261\356{\030\204@\312\216\177\305\201w\202@\240\224V\267\345`\200@9\342\0055\0060\202@\321\244x0\007&|@\321 X\207\320\252\200@\275\336\234a@9\201@\035~\344\310\252\320\201@)r\313h\232\024\202@\335\022\033\3240\\|@~j\003\025\221\325y@\240\221\232\317@\230\202@XM\205\250t/\177@\207\263\350\335F\243{@\017\244V\t\315\023\201@^\037\023\376[\271\201@\020\266\220g\\M\177@\307=n\340\325\354z@^\000\201\344X\027\200@\376e\246}\315\253}@\305\265\313a\213\306\200@c\353\227\2018\022\200@\276\033\305b\t\351|@\221\3108\006{\353y@\204\222\373\026px|@.\376\352J1\"\200@\346p\n\354Dd{@[\3503\273\310\336}@\240\224\352o~\327}@\374Z\005 \002\262\203@9\355\342n\250\306{@\221\261\326\335^\205}@\244\304\360\r-+\202@m\230^`\350G}@\305\311\237\344\232}}@>\355\031\334\325X\200@*C\352u\370\226|@W:\334\320\313\212}@\2450&!#fy@l\247\305\205\252 \177@\207Z\232S\017[\202@\201\323\227\t\375\251|@0\223\270MXVz@+=\3151{\231\201@\000\200\262\373\020:\201@\321X\202x\332y\200@A\212~\340\242\215\200@\360\351Q\361.\346~@3#\201\347\021b\204@\372-\205\225\333\177\177@#\221[\312jC\177@\337\235\226*@6\177@M\243\254\353\005E|@>Ng%5>\202@P\335UD\206F\203@\345\032\333\3702\306}@Zv\260\261)\007{@\210v\336\336Ht\201@\217\333\036\250\257\343|@\276\341\241\221U\350}@S\212DK\220\025\204@0\017;\035*Z{@@f\325x\321r\177@\034\330\301\375[|\204@-\302\277{\300S\200@b\305\231\310\010Gw@at\"\332\252V\177@\362\247\364\037\033\020\202@\266chA<\210\177@\347\211pp\253<|@\227k\325=\203w\203@\235X\305\253\355\242z@x\361\214/9\311|@\360g;\257\375q}@\360F\243}\221L\204@)\234\224{h8|@$\236\217$\225\202|@\030\0169]\324k~@\026H\227\327\271B\202@vWc\245\352\204}@{\374\261\352R\247\201@\031\374\210\375\321\213|@\026\215\307\201BNz@\030\252?\356\036\356\201@\362\325\004\004<\361|@\374\240O\203]\027|@\364\216\205nx\322\201@\000\214\370\221\270\335x@\325\226\271\356{\"}@\347\306:4N\022\203@\325\272m\230\tu\202@\212o\023\366\'\211\200@ \277?\032\323\035w@To\tf\250?\200@q\271\217N\360oz@r=H\001\364\350\202@\252\260#\335\237\026\202@\026\330\317y\221\223|@W\036\341e \213z@\266P\366\002\2727\200@\3407\'O\205l}@\213\334\274\312\353S\202@V\207;\252\034\021{@9Hw\243D\242\201@\231\013xK9\030\201@\r[\355z}\002\200@\335XO5\004\n\203@\300`\361\237\264\346u@\230\365\03713\014\200@A\253\006in\021\200@\303\245\026\305\013^\205@A@\257\222\346`y@\302}\222\3320R|@\313\373\033yb\314\202@\213\361X\250\203l\204@5\027\221\300\223j\203@\325$\325\343\014v\203@5\213\010&zl\202@\336J\033\230c\003\204@\333\272#^;\017\203@\267\020v\205\300b\203@\325\320\355\321\352\323\203@\3563\274\241\246\375\205@\034\023\255\022k\034\203@\t==\355@h~@\364\253GL\016*\206@\360\016Z1\356\203\207@\220\301Nd\222\305\202@E\265.\353\323\025\211@t \261.\332\250\201@\002\357L\270y\004\205@u\362e!\006s\202@\271\227\030Y\252\201\201@JMQ\305\360\001\206@\2157\177\350c\001\210@\325\340;\210\\\310\206@\266*0\205\256\215\202@\325JMX\343T\205@\036\271\007\024\026\232\205@\307\024\226\003\331\265\203@|\217\257\022\263\236\204@/f^?M\234\203@o2\242\003\370\354\205@\3042\213\377\344\245\204@\216!:\336\256\244\206@\301\372\371\002\326H\202@\255f\372\217\311\306\202@s,T\016\352x\204@Z\266\354?\212\227\207@\3268\024\232\317\241\207@\317\362\222m\024w\204@\253\002\014sB\t\205@\212F\206\246@\204\200@\367\377\252\'\302\331\200@\232u\312*\007\025\204@\352\010dJ:\226\177@3\t\256\210\036\320\201@\324\261\332\246l\333\206@\035\310\231?%$\204@X hh\351\272\200@0\307\313>\212\205\203@&\025Qh\272\277\203@c\271\246p\014\344\200@\373\3005E9\367\202@I\273\'e\351\223\207@&\036\350\270\331\202\200@X\005U\304\313\242\200@&\250\357\356\323\334\211@\207\027\3275\223 \200@\201F\202uD\365\203@?\232\256\276\"\275{@\036\014~jt\010\203@\017\316v;6d\204@\266\021\260\221\303+\204@\331I\0302@\363\206@\023\310}s\222\345\202@\240L\226\331\266\373~@)\246\327\324\202-\203@\362`\221>\333-\201@\267\347^4\301=\204@e\005\330\360\2660\206@.\243\214\027(\335\203@T\216C\323\013dz@\251\001\304\371\244\207\204@\374\225L\215\250*\206@\014\235`\236\000o\210@\304\253B5\342\010\210@\246\016>jV\365\201@\334\266=p\233\301\205@1\'p_Vl\203@X|\001?\232\276\203@\025\r\260\006\021l\202@\350\274\203F\036\017\205@\344\0148\333)\252~@\363L\373\252)5\202@+Q>\"0\353\203@\234\t\321%\022\005\207@-\274PI\252E\203@\360mY\314\032\251\200@\275\004\033f/r\201@\231\017\312\336\266\356\206@\306},\031k\020\203@\260\236\270+>\263\202@\350\236\020}\334\311\207@o\341\262\237\270\201\202@4g\007\024\267r\200@\'Y\312,\020\364\201@\332pj\212yT\203@^\344\324?\273\246\205@\005\271\335\317Zu\203@8\366\230W?\374\201@\3354#a\354\377\206@\310\016\016\364\000\261\201@{\320crT\303\203@K\205 0\232\261\203@z\273\363\210\034x\200@\275Y\220\326o\t\203@\315\342\r\211nW\203@z\367\316\003\220!\203@\317\3160k\272\324\200@z\244\331N\341\203\204@e\332z\231\254\206\203@.X^\035\3474\203@\264\'\363j\366\342\204@D\273\251\246g\322\201@\235\214\221\256\360V\200@\250\222\3363\232\346\202@\274\205gG\241\322\204@\332\3641E<\206\204@\363\2231\241\307W\202@\2637 \263\305\036\204@\275\273\246P\016\271\201@\033<\331\242\321\360\202@\367\321;!j\204\205@X\367\345X\002$\204@m@m\3432T\202@\313V,\334e\033\203@\252\342Q\247\222\306\200@\006\302R\222\014\341\203@e\326\334\002E\212\205@\322}s\262\320\237\200@yN\306\037\206\211\201@V\310\013\025\317\226\202@ZA\243\316i\206\203@|h\2139[T\204@\004\310z\314\225\204\202@\314\3645:z\200\204@\263\000\205\226\376\247\206@\006~\316Y\277\002\204@/A\327x\002H\206@o\263d\017\000x\200@\031\270\030eJ.\202@r\225(\307Ns\205@k\301\241\363\r@\204@\036\241\371\357L\254\201@\010\374\001_\233\337\202@ZF\347}AT\204@\202\004D&\365\034\207@\305\324\006\270#\351\203@&G2b\212\033\204@\366\275\350\365\247\332\201@\013\367ih\223\037\202@N\374[t\376\327\205@\'\023\\\243\001x\203@\252\335\251\003jU\202@\343\323a\215\354\317\206@\n\3138WLJ\203@\371\031\253\261\013f\202@\006\224\036h\341:\204@\235\013\305\214V-\202@h\t\020\3335\003\204@\027\026\217\255\221\005\201@O\344\261\373\233d\205@=(\274\032\373\351\202@3\266\377\000\350I\205@R\001\350\t<\235\204@\240\224\262\250\307\035\203@f\364\241o\365\365\202@?\2149)\360\250\201@\302S\351\t\233`\201@#\240\032\227\024t\202@ky\373!te}@O\210;\356^\253|@$\000\317\365\233\020\205@\262\246)\312\215\245\204@\254\000\234\270B\230\205@7\242\032\245\224\257\205@\235\341\3177~\256\204@A\345\245\317\346f\201@\3438\264\027\371\273\206@\336\331\354\223\261g\205@\361):5\311a\203@7\230\253\247\253\257\202@\206|\325;\242\212\200@\312 \212(\346\021\204@\274\311\270\311Pe\203@\312\341\243v\224\353\204@\343\357\353\335#\000\203@\372r\265\3237\207\205@\360\340%\272s:\203@|(J\0109\210|@\247\370n$\255\344\200@\027n\300\335\234\017\202@\315\355#\366?i\204@u\304H\303\222\337\202@\231i\227\035\203\221\200@\231\307\254\235\243\272\201@\031J\010\277\351 \201@\274\304w\32795\203@&j3\327I\222\202@\222\370\251\370\247\244\207@a\\\353e\353\262\203@B\204\260;\010W\203@\200I\232q\377w\205@\351Ju\3459\254\200@O4u\373\0173\202@[m\230\365\272Y\202@\265@|\304|\227\203@\347\267&\375\326\337\201@\027mqS\270!\177@\373\177\225\241\225\221\202@\027\364\333\034 t\200@\377\315T\2759\344\201@\325S_\217\276^\203@\300|]Dkk\203@\244\24753\276\377\202@>\333=\315\262\237\201@7Y=\245\221\355\207@y\224^q\265\307\201@U\313\253.\244\205\207@ \360E\336v2\205@\177\374\334\272FX\202@f\347a\001\233\315\210@\253S\237I\347\222\201@\230\201\216GIQ\201@\361\234\224\261\371\273\202@\201\000\212\374\212g\202@+\224kPB[\204@-\375\221\032\037\220\201@\250\360Z\326\t\377\201@J\243\207\347\035\250\203@\352c\271\335~\355\204@\303w\211\240\216\227\204@RLw\235\205\021\201@\2665\264\233\340\302\202@\377\237OG7R~@\030\030 \3062y\204@@\2705v1\362\200@\265vs\236\021\315\203@\300HZ\037\277\241\203@ ca\372$\316\204@Y\376\005\3015\032\204@\371\r\335\031\346s\202@\034\214 \243\323W\203@\367\250{\376L\001~@f\237P\002\237B\204@\010\022\031[S\300\203@A\361X\202\237\275\203@\212*D\025\271\264}@\232\321#!\2724\202@A\302g\2221(\202@\374\276\272\235\345\\\204@\001\344\1775w\323\203@\224\321m\303\007u\205@\314\226\234o\3357\177@\244\303\207\376\333\007\204@\nE\"=\205\206\203@\351\013\t\366\273*\203@\273?9\234Yc\207@\276\nC6\254\264\202@\263\010H\360\017\255\203@6\303\345\321\230\017\204@jH\001\002M\001\204@\277\303Jx\266\212\200@\202>\372a\335\000\207@\364\034\364\353\304$\204@\373P\202V_\314|@\263? 6\335\272{@({\367=\3572x@ifH\\\257\315\177@:\302\032m[\230~@I\353\261\241v\206\177@,#\023m\2642|@t\'\214(\220B\201@G\016\335_D\265\177@\250\n\031\236eU~@\351\252&\304\273\310~@\265@\262V\370\303}@\3131\263=\002Tu@\343A+$\010c{@\237q5\257X\036y@\355\226G\362.\271\200@\307\007\036\206T9\200@\243\362\244|Y\267\200@jh\036\255\212\022\177@\230\277l\307\013\247~@{:\367\321!\031{@\tX.\227\213|~@\371\254\026\232\327\362{@]\274m\263\005\246x@%\366D\307\"n}@\332\227\235\"\001-|@\264b\205\234;\007}@%\343\334\030\237!\201@\243W\317\241\347N\200@P\343y\177\335\276\201@{\347\222\361H%\202@\216\005D\372X\241{@5Np\346_.\177@p\035[\t\223\351}@\361\037P\200E\t\200@+s>\270\216/\202@\335\204`\273k\227}@\313\376<\336p\361\200@d0b\225\244\361z@J\241\372-t\263~@\247\251#mt0\201@\235\"\3724\365\203\200@\220\335\035k\260x~@\365PC\236X@|@\264\202[J(\320~@\035\340Q/<d\200@\303\372\242\224\300V~@\204~\251TE\245}@\377\316\273*\3241\201@\303\337$\330w\345y@\\\376\371\013\311\363\201@sU\373<\025t\200@\004\231\242.0\231\201@*\375t@\331U{@\375\356\016\254\\\277~@T\304\322)$\351}@\367R\205\214\035\200{@I\232H\246\023\355\200@|O?\253E\032}@\326\210\3067a\275}@\"\3117\341:`{@v\332\001\313z\365}@kz\303\220(f\200@\217\327\326u:\370\202@\332-\313\251F\317}@\202b\250v\222\335{@\345\"\224g9(}@\177e\220[\325\203}@\324\362\027)\304x|@\332\304\203\036I\234\201@V$\366b\232\357{@/\225\326\213y=}@\024_C\205k\233\200@\304\361\354Xi\232|@\267\025\341l<vv@\r\333\331\273\305\263\204@^\342\376n\260Sy@\270\267\221\r\214\343y@\310\335\002\36050w@y\220\231d\376;\177@\343&Nq\232k~@\340\274\335M?=\202@\315\013\261M\207\371v@\263\372\240,\216\005~@g\277\326xb\241|@\271R\322k\016\223\200@\344`\375\007\202\355\200@&u\355\230g\276|@NW\n\303\317[|@_\212\224\372\231\032}@\345\331w\210ul\200@\235(\3409Em}@\327\262\323 \260\314~@\222\364i\345\247\021\202@7\205\\\212cX\202@\031X7\307$\300y@\305a\227\225!\352{@Y%V\343U\336|@\317\224G\001\374\374{@\224%\302\274Q\tz@v\013\351Dw\235\200@e\364#\220\321W\177@\212\030!c\256\r\200@\222jZ\352U\tx@\323\024B]*\306\200@6\223[\326M\037\200@\337\260*\331\330\205|@\252v/\311x ~@/k\0132\276\205\200@o\336\253C*\266|@\360\0242l\225X|@\225\ry\007rVx@[\r\330\372I\367\205@{u\362x\355\\\202@\376\306\016\224XK\200@\254\245T,\230`\177@\361\346\031\031\356j\200@\237J\020\037\032\350\177@\261\254SL:\036|@C\310\307\264\r$\201@\271\353>\221S\340\200@\243<\334\240T\256y@\235\305\335`\377\033x@c\214h\364,\207{@<F\231o:\013\200@?\0001Ew\340{@\3054\0228\374\252x@\260\001\264!\366\364w@I\022\364\000z\020\201@\211\230v>\007\274\201@\274p\020\r\345r\201@?\0020\304\022X\202@\276\034\020\0028\346|@K\006G\272kC\200@8\'>vo\177\202@\005\204\005\361\256U~@\223j6\331\036sy@\032\342\263\255V2\200@8\010A\365-I|@\215j\031\234wN}@N\371\356W[N~@\330;\034\321[\375\177@x\373@\226\205\316|@\017\270\206\030\275\324x@*\2677\342@\023\202@\212\001M\350\347\"}@\202\233\274\255\356(\202@\035\364\026\300\3658w@\360\246\343\264\232\235|@\313)\275\323J@z@\030\240]\321\214Wx@N\366\306!_\334\201@\007\361\330\331\250V\200@\332w\017t\337\215w@5p\265\260\327Z\201@\310d\0252~[y@\\\027r@\307o\177@\0375W\243\274\016x@\233p\232\034\212f\200@<\230\205\020e\372{@W_\203\027\331-|@|\004-\025\214\237{@\350R\210S\256\177~@W?\276;\327\350\200@\250Xe\325\177\034\200@ w Z `v@#X\243SF!~@\210\027-\363,\263|@\276\216\340\227>\206x@\264\324\213c\315\217\200@\316\360\363\3452Qz@UL\246\364\271j~@\031*\223`\326\272\177@R\224{\205<\326\177@\325\227\353\273\236\306{@\364)\213\275r\014\177@\037\3574\345i\326\200@t\347^\242\271-~@1\004\312\007%\265w@W@\301W\005\003z@\220\013\206\316\022\276y@\342,A{_/\202@\347\204\302\200\342:\200@\264\026\314\005s\264{@3za\240\315\217}@}\310\205N\323\035y@h\000\027JU\315v@\305\333\004t\033a\200@ea\354y6\227\200@\320\367\212\314J\342u@ \315OUD&\200@ \244\201\263H\177\200@|\265m>\362\306}@\312\240\340\317\206b\200@\370\033L\272\363\332z@\326\034\3354C\003\201@\361\323&Y1\321{@\301\342\373\263mzw@\006i\013\304\\-\201@\024\262\254\314#\264|@\026\023,\213[\207\203@R \014\322\375\374|@cE\014\033i\260\200@\376\275\365z\346\354z@\242G7J\306\303v@\025\274\247r\222\340\201@y\2424\031\001\257x@[s@\320\331w|@rp<d\357Q|@\235\033\300\320\230\303\201@B\r\260\036^A\202@\217\2203\352j\313|@\372>\032;\234a~@td\002\345\271\224~@\356B\3629\350r\200@\334\211\014f\311jw@\343\026\226f\022\263\201@\253F\314\254\236\211\202@a\375\2369\366\234z@x\nSe\254\236~@HUR\325r\325x@r#\312.\246\000\200@CW\254\2535#\201@\225SIs\002Mx@\334d\346\225\366D|@4\2068\021\026\\|@\333\350\2441\351\272~@Q\2424>\207\246\200@{\022\371\234\353\215\200@\276\256\274\222\0030\177@\023\032\303_\307!\177@\220\367{d\314\354{@)\215\346\244\313\373w@\364%n?SE\201@\252\034\357\354\305\277|@\373\355J\034\215\325\201@\322\345\212\340\'\246|@\346\001a\255\207q{@\t4\010`\3350\201@\000.\3477\0140}@&7\0102\333\270\201@\014Sw]\223\203z@\033\266\374\306w\210\203@\257\366p $\035y@\301\305&}\201\304y@\3438H\237\3546~@~\371@\255\374D\202@)\020\263\212\274Qv@\320\212N\013\212`\201@\322_\370\305\302\351y@\000\233\307y`[x@x\374\313\037\241\266~@\212\353\026\322\035)z@\244\036\315\240\277\270v@\210J\352w\305\374~@\356\341y\025\232K\201@caW\363\340\246\177@Q\315\235\323K\022\200@\000\034\007+\344\377\200@\353\0328\211\n3z@\305F\326\364\372}\206@\333*\242\331\027,\201@\244\257\r\202\360B\200@P\243\241\376\231P\203@\274\274r\241\266\343\203@\307\245V9\211\230{@J\371lz\032\261\202@\211HH \364!\203@G\035\357\360\255\335|@\310M\376>\225_{@^\276\261\300rU\203@\266\201tS\224@\203@\013j\341\222x\352\201@\014\362\361\366l\307z@\263\255o\301\021\347w@\212\311z\304@=\200@\264\354\033F\240\241}@\224\200\376\327Fq\202@\220n\262\370\271)\202@x\217\252&U\372\200@\267\210\001\002>\225\200@]\204\025\362\036R\203@\265\227\306\242~u\204@\217\366\2351$\301\204@c\233\367 eN\202@\310\250Z$d+\202@=\271{2\r/\200@\266\336h%\226&\204@\032p\273udmy@<\357\'Z\000T\203@\247\352\236\014\032\240v@\375\177x2\3670\205@=(h\347lC\205@&\226\215\035,\016|@My\026\201\356\207{@W\367\210>\264\210\177@\223\274\300>\2059u@\007\330\021\351\227q\201@F\301\223\231\372\024\201@|\001\366E\364\367\203@\262\322\353\334E\327\200@\241\032\353\n\0366\201@\320\257q\302!(\205@\353\030P\376\252_x@S?\376)\233\006w@\241\031\370\031^!y@\204\005\001a\303^\202@\203l\372\3356\306\204@\212\207f\316\276)w@\224\314\310\361\371|\177@XI\037L\321!{@\246\251\340W\026\270\203@\237\027\337\266I#z@V8J\235\321\177\201@\363\244\202\326\260jz@\317D\031\032\006\222\200@|\223/n\372B\202@|R\n\367)\230\201@\256\025F8kK\203@ \"\336 -e\201@=9}\312\302Nw@\007\250\005z\316\205|@\227\345wL#\032\203@\223\016\000\310q|{@rmE\335\0269\201@pSO\371\350|\204@\317LR7*\201\200@I;}ru\205\201@\237N\351,g\272\177@\205,\2133\330\003}@\212\314p\177\344\215{@\305\0360\003\216\315\200@I(\357!\002a\201@\261`\377\'yD\205@\320\003\274e:l|@< \356\330\235,z@\257\331Sx\233\201\203@d\347P\002\315\313\200@s\267J\355\3066\203@\3209\202\r\361\221\202@\267\364\223\025\\\211y@\302\276\300\204\264Q}@\216\270=\000py\204@-j\005E\267\206}@\243\0369X\266\310\201@NU}\330\352\214z@\250opT\274\345\200@\367\022L\272a\334\201@\266\306\020\343\375\242|@\214\206#\347\262\243{@\033\353\224\334l\336v@\025\005E\025\305\376z@j\241\241\313\326\252\203@f\320\354\242I\031}@\344\343\314\023\'\205{@\205\353/Bg\345|@q\337\272\277\177i\202@\365\032p\2758%x@\006\0037\255O\271\203@\"\336\2724]\374\202@\275A\031t\227\207|@fC\217j5\262~@p\374\320\021\277!\205@3t\252{\272\323\201@\204\340h<\335X\200@\353\224\367\307:W|@\034\027\035\352d\000\204@\273r\303\244\262,\201@\363n\264\207H\304\202@\267\'u\363\206\340\201@\035A\263h\262\332\201@M\201\231\245\253Z\200@\2167\0050B\254\202@q\032\337\274\374\223~@\317\031\315\365\264\\\202@!R\230\'\352Ct@\342/\023\311_\013\204@\325\246\274\374\351\261|@l\367\252\206\252u\205@Cv\353\342\235\203\205@\256d\020\222\304\013|@re/\004\300\251\202@\333GL\031tY|@zH/\356\023\361w@\315\262%T\364Y\201@\256\t\030\003\010\006\201@zi\302\025G\245u@\232f\345D\365$}@l\300R\235\006\232\203@\030\023\222\320\262\'}@X\303Yn\241\240\202@\253I\350\223\342\341\205@\347(\005\277\211\034\202@\'\"J\363?\036\201@cx2\360\202\343}@\\\344\252c\257\204\201@\276\364\337\263:r\204@\321\013\213;\310Cw@\253\000\'\370\306\031{@\005\201\366\':\331y@\000\337\232\356\024nw@>\323\260x\245\376\206@e\243.\302\036\277\200@\202x\270\225\233)\204@>\350 \214\200[z@\307$I\335\356\340\203@3\375~\205\302\'\201@\331\020.\363u\367\201@b\035`\363\363\243x@y\226;\314\354\253\201@\246h\273\323\013\343\203@]\356\016\354\016\016|@\246\324\351\020\222X\202@q\336\341\235\305\304\200@\335\272\370\213\366\310\204@K7 [\224\343|@<\341u\323\242Ly@\265\330\334\263\243\242\177@\343\367\030\355\351\323\203@\2136\036\362\037V~@Y5\233C+;z@\224\365\356\306\202\215x@\235H\261\366%\272\205@\356\305W\253\036\354z@\017\3429\2476\024\201@c\177\347\217\200|~@\207K\252\351v\307{@\241&\367_]\362\203@\305c\355\352c\033\203@\3771\366J\244\203\201@\355\261x-\345\263\201@\2074z)\322z\203@\225`4\325\265\326\201@FOF\036\225\004\206@\321\242\244\001=\227\203@\314|\275\333\233\330}@\243\337\014&\370\244\201@\234\375\305([_~@\323n\023\265\206\336\200@\330etZK\334z@\240M\010\233\251\362}@\300W2\327\243n\204@\256s}\\\035F\203@#\215\223\317\306\036\202@\210\315i=\371\253u@\315\207\345\273K\215\203@\002`/c\242\322\202@\277\236[\003\362`\203@\347\243_\225#P\203@\216\263\010\335\223(\202@`L3a\316\354\203@\202[2\3264\207u@sC\014\261\307\230\201@\373#\211\371\207\370x@*\205&S\346E\200@q\r\251\300\264>\202@\222\020\317G\026\313\201@\221\237\253\330\357\316\202@$\301\260\204\247S\201@Y\221\000d\264/u@Q\240\036C~\222\204@\225J.\336\313\004\200@\307A@\354\210\215\201@\244\006b0[J\177@\257C>\321[\037\200@\310g\022\312E\364\201@S\234r\030\216\205\203@hE\341x\3700\202@f>\203\203\026\307\202@kZ\256{=\272\201@\356@\340\177\025P\200@\215^\245\322\272\236\201@\'\024_\010Z(\204@\230@\265/\230\002\204@\257C\230H\241M\202@\216\\Y\264{\360\204@\304\233f\036\001\"\201@\272\273\027\235\203\231\201@\266\023\314\026\304$\203@\317\306\r\271\177)\202@\277J\370\342]R\200@ko\337I]\010y@\2312+\326\260\323{@\261Z6\247\305\211\203@\305R\215>%\261t@\030\204f\ra\321v@\315\203\251\353\256f\202@e\022\222\364\356\335\203@(\023h\010U\205{@"
      }
    }
  }
}
node {
  name: "tensors/component_1"
  op: "Const"
  device: "/device:CPU:0"
  attr {
    key: "_output_shapes"
    value {
      list {
        shape {
          dim {
            size: 2305
          }
        }
      }
    }
  }
  attr {
    key: "dtype"
    value {
      type: DT_DOUBLE
    }
  }
  attr {
    key: "value"
    value {
      tensor {
        dtype: DT_DOUBLE
        tensor_shape {
          dim {
            size: 2305
          }
        }
        tensor_content: "A\320\233`f\330c@J\0353&\247\003\\@\325\224\327\014\341\312f@\325\242\010\335>\"h@\300\236u\000\004}n@IeY\227NGd@\264(]\304$\373j@@\356sVW\257g@\007\344\247f\260jk@\3367\312\032W\320l@\2552\272\255\ruX@\206PU=D6e@\366\244?\330\'\013g@g\320\t\207\321\010f@\366\036\260;\3603g@\311\246DS\215\211i@&PR\217\031\364l@?\031\266&\317\202k@\"\2747\347\214\'h@\235\364ngE\004p@\274\332\340\223eLi@\235\000\353\302\333zj@\273>\277G\222\333e@\303@\350\326\326ep@D@\260\016S\211b@\177\211V(\317\207U@i\264\000\244\206\271d@[>\016\311\345\323g@\371y\364iAkm@\004\311`F2\231j@\243\177W\t\255\024p@\020\343\252\232\032\005Z@\035_\002\347\360\366f@\217\317\021,@\254o@\361\227K\227\244\320l@\351\365Z\030\036\003j@a\035\332\376\304\206e@x\225\'\tk\224d@\201\316^\363t\031i@\277\305u\306owo@\351\357i\334\307\032h@\234\372>1\231\324n@\347,Ct<\352i@\254\253KU?Ki@A}\366lO\262h@\027\363\001\270\231\301f@\01718\215o!b@t\231m\003S;e@9\371\355V\274\235l@\364\316\360+\357%j@y\305.}A\247p@\257\355L\216 \n_@\327$\254\035\322\366e@\255l\375\343\355\204`@\031g\024\001\303\364a@\236\302\340z\303\245g@\035\355pEF\362g@n\235\304\006kHj@\237\225\027\320\027\312n@\256\361X:\227<i@\321\204\230\332m\303`@s\340)\3506la@\321\rsP\272\335Y@\013\317\3700\362Ml@\274\234\375;\005Ej@3\337\243\346\'Di@\346\004\007\013J\217b@r\3308\222\272\337h@;\221$\021\260\216g@\361\336Zf\314\002f@h3\026\262\312\273g@\245\220\2605\363\230n@\377\337\245\253\352\271p@[I\366\232\004\\k@\326\030\"x\335\tj@\267.\026\346\023\006f@\355s\221\001`\257a@\261(\252\2238Pb@\310\300\276\326W\233b@t\334\222\211D,f@\325Q\355\352\035\324k@R8\010[\251Zh@\271_\010b\265xc@\317\211\026\275g\360b@>!\326\376N\374h@J\365\352\227yHa@^@\225N<\306b@\302\242\322\037\352\001W@G\241\221~\262\267`@s#\273\275\212\027i@r:^xR1W@\271\230\264\026g\336e@p\027~\322\273\014l@ABx\263\260F_@\307p\243\001\225\364l@3/\354\3351Mg@\357\213\r\326\344\321b@\217\263\375\016c\271^@Qu\314\204\232\037m@\324\000\267*\332\205n@V\023/\273,`]@\220\256\234\235\362\007d@\355&\331\326\351\355o@\204?\240\030t\256h@k\303\240>\020$m@ \332\272-\333\036n@Y+\310\353\272[f@\200\271s\315X\010j@kn\236\355\022\342h@\226$\234\335dZi@\347P\342\034\217\373j@;\342%\202\303^b@\274\377\022\213\260\310g@\340\343\364\2316\305h@=\267\343_\240Sk@\256\270\021B?\230d@\2374A\336\277\245a@\224r\371\277\001\314l@\366\317\245\327.\264h@X\204\026[\261%`@\341\256\346\242e\004c@\231Y\272\037\030\306l@\006\361\355\242\330\361\\@\331\256\227\357\3672c@J\343*\031\016\\e@f\352*#\367\267l@\037\n\004\030O\352l@\340u\360\222\254lc@L\310c\373\033\343m@ty\002\261\204\334b@\221\236\317\315\261\366l@\210d\215`[&d@G\331\377\t\225\tf@\355\247]\314\241\263e@\251\242\001\275\321\207m@B-.\204\3166j@\243\216k$\306\234d@\242\031\006\013\323{g@\277,h\rT\333f@^\024X\373\206\250d@26\371\270Uda@\337s\244y\2701o@\231{\334\364+\201o@\260U<\214\225\352j@\350\006\232\216\336]p@\372M\177\204u\230k@\232_Y;b1i@Oe\n\221\356\251d@\235j\372\246\252\234d@\220\264\362\000\203\000f@]\277{N?\226p@\014\2647\337\255gp@\033\276\002c\216\224f@\232l\372U\253rl@\250\004E\32587d@\0050\356P\030\344h@)\321\004\'`Mn@z\330\031\313\032\200^@S\304\340o\325\235o@\350\322\215\357\000\363l@\376\026\347\246\312\nj@t\0325\223mVW@M\362\037\265\363\236a@\253\350\010L\301Pl@\217\242\327\271M\023e@\276\365\255R\246\376h@\r3`?\256\246b@p\014\236\264D\346f@\"N+\024\351Lj@\335q\324\305\3516i@\341\357\177\000fP`@\370Z\376\263\205\266g@\002\302]\213_\352o@\341Oj\346\335\206m@\263\223~\357\245\256n@\327\370\235>y=o@\275\316\327c\334:h@h.\037)bUl@q\353\373$~\202l@\255\264\215\342{\rq@,5\031/\024\230e@r\034\242\303\342\te@Qk>\332\3137f@\311v{@\357\364f@E\022\033\013\225\376n@\376\273\255O\367\217n@V3Q\242c\316m@\302u\202\367\317\333i@h3\370S \222n@\361\2712\340\031\253k@\037v\235\210u]c@\334\'\276\226\307\333c@D#W)\306Bg@\024\355\265\362Mkf@F\217\0102\323\241e@\023\377{\361\271\340k@\'W\335A\2154e@\266e\304\016\355o`@ \340\006 \312\004p@v\\V\262\027h_@\207\033\261\312z\010b@$N\344KUNi@Q_\306\345a\314h@N-\224\2779\331o@\225\365\277@F\274n@\"[\t\213\354o[@%\314\364`;\213l@\263\251*\213S*p@-\237Dh\337\327k@\304\n\013z\242Ab@\366\016\260\027\321eR@\263\217\252\316U\317W@\226\273|\356VP`@\371\005\335i\001\305b@\035\034\334n[Ta@w\261\002r\207u`@_6\3478k{c@1\326\332\352\271,Y@\335GC5\326\227K@g\241\022],\243X@\241\377\327S)\342V@\024\024\236\024\300a[@D\223\221\032\370=Z@\363\2303\236\235\211e@\201bUN\270\245U@\210\260\245\205\367LF@gx\004\351\032\r`@\032f\310\251\342\027L@\335\351\323T\025BN@J>P\342J0G@B\376\361\302\030\036O@kQ\310U\236\374R@!M\366\266\262tU@\247\321\235z^\320a@\352\261\n\276\210fZ@+}Z\321\345\231B@\007\017\252u\032\232a@\304\323\225\221\3340W@\217im*\034$[@\367p\267\201\367G\\@~!\211\010\032j]@D\001U\253*\3125@\nK\264\254\234\223c@of\203\321XBc@\200\337<Iv\3411@\2315\210\335\tz:@\024\201\tw\314\002Z@\007\014\026\355\207!J@\270r\247\265u/a@Z\356\233\266\371NP@\033:\242\314>mS@@#K\300\003\324P@\322l\235]\304\022a@?\017\303\210+\253a@\301j\025\207#0a@\177\247h\257\025\371Z@Zj1wr\370Q@-\316F\340\300\206?@m\302\\\037\205\023>@%\006\027j}\265:@\320\002\267\345\3609\\@\222\241\351\310SL\\@\355\221];+\225T@\231\244F\316\031\360K@\306g\004\204AF_@\004P\327\334\253\033c@\322\243.\023=jU@\331\317\271\221\222\177c@\233\215\006\005\213\332`@q\310\t\037jdC@\356\227\257\253A _@\361\305\376\267\273\202L@x\372\000\330\234\031B@#\202\354\t\246\000F@\243\224\304\307\000Lb@\355\216v!\216Eb@[S\341\333k\2118@\336b_\350I&a@EC|6\223\216O@\371\353\367\243\337JO@\357\371\261\343\3203S@\212\203\341\203\316\264a@\316\034J\346\356zG@\201\245+P\024pX@I\330\227\217\300\356Q@&]\207 \230\377Q@r\327\302\370\345=W@\275\014\305\330\005\tM@\250\337\3046%\234a@<\211\217A\373\356P@\014\213p\202V\016M@\2267\360\270\246CG@\026\246+c8\224\\@\205\013\366\2667\333`@\343\302s\006\024\377B@\242\250\215\376R7Z@,M\323\323\351>e@\025\367\353\342BQQ@\325#\265\356\374\304X@\251\006\220,\275\000b@\322\360\354_\332\004P@\262s\211\277\257\314[@\374\202\214\376BV_@\"\r\367\261\376>a@\261\333\034\n\246\321c@\201\314\374\010%\312`@)%\345\272\025_H@\366\001\337\026\005\364`@\022F\267\247\324\345a@\251\317\202\023w\216]@X\306\317\375\242\020S@h\226 \026)4\\@`\310\306j\272<W@\216F\004\312\275\255T@\027\201\2533\374\201V@\3641\364\365\277Hb@J@\221!\230\221[@\315\251\233\334\031\233^@h6E\023\327oV@\316{)\346!/A@\271\330.C\234\014P@\207 \302\250\314\237F@\350\2325\320\245\352T@\304Jm\334\032\037Q@5E\021\326\321\nJ@\264*\263A[CB@f\210Db\362\223c@t\261\373G@\336B@Vi\350\276\3024P@\3113\327o\263\033N@%\272\3001\243\037a@r,\265\'\241\321Y@pF\356F\257l`@\350\352\366lr\235`@\332\265\264\001\222UY@\343Dr\353\231\306C@X\006\213\3623\312:@D\236`\352\265\226a@\274\\I?\3438V@\331L:w\3667X@3\217j7\337=U@t>\261,*s[@\250\370t0?bQ@H\270\302\214=[C@B\016\263\261\324\211P@\266\363qu\200\016H@\340\255\rTP\373_@^T\273\257\214\265T@\304\304\2621-YP@\227\210*\035WrJ@\033G$\327sS-@D\024\343\376<\367=@\260\316\355\021m?A@\225\353\252\266\"\240d@\010;\203\310!\\<@zOBlw#R@\336\222\265\003\362Ub@\354\030\264\366L\332?@\202s]>\270@O@\363\212\377r\313\022X@\316\204r\271\270\245a@\304\243\017P^k@@\3512\013\267\016\275\\@?\262\321\300*\257O@w\\\325B\326\357T@\366\177\356D\203]^@*&\251 \036zU@\352\"\005\265s\026_@-\'\r\250\242\017G@)g\207\025\376\017a@\217[\363\314,\220U@\016\251\311\215\363I1@H\263\274\026\325\352P@\264?\020(\220\001a@]\344\363\236\306sQ@A\260\033A\371\265`@.\352\261/X\250`@\177;\020oY\206^@\3121\214\371D\352]@\226\223\211\325\210\tF@\022\370\320i\366L>@\016&~\014\341!a@\265\356\227\243\3747W@\017Q\244\336:\303`@\306\nb\325\036\336Q@I\274\275\021e]U@\361\023\306\203y\016A@\006\t\032\014\346w4@\323\007`\001\214\'a@_m0\354\316fb@1\243t\276Z\205`@\325qE\342\327\374]@\266N\31031\016^@\310Vdk\032me@\2547\312\037\\\371W@2B\220N}x7@N\3707<c\307G@\034\247\241\310\343\250c@\301\347\022C\332fZ@[\254\316S\261\261Y@\372\257?\\\r\340_@\244\364\034\225\231)\\@\267\302>A\316\354d@\260]\354:\t>a@\250\330\302\325L\224\\@\022l\351p\0277_@>\260\231!n\213a@\324s\204\347\'\357[@\337\027\301\360\265\200T@\315\004\375\270\366b^@\274<\002\2604Ia@\301;\325\032\363\352Q@\022N\033\257\223\036L@4Zaz\311\206e@x\006\303\215\224UG@d\361\377\212\370\326Q@\0243\363\240\236\375]@\260hT\006\010\210G@\024\2354u\n\211C@.\266\352\376R d@d\257\3508\301\027>@`\266\\\254\227\327[@j\\D\240\013\nG@\362\322\246\006\241KP@\220\347o\310n\300N@{\271\374\257\314\307_@<|\363\337*gU@y\336-\256\243\036Y@\017\307\222\024\264iT@O1p\212\314bX@\322\321\261\374lx_@\253\374\256\324\310\027]@G&\267\010\244\021P@_\271\200\217L\005b@\267\3148\0302\345Q@\273\271\336\252\343\365_@\347\014\372,\231\024[@?\336_Z\2259;@\363J\206\313\254\254a@\250\275J\347\246vb@\331QQ9\312:a@\332]\370\314\337\326_@\266\002:\355\325l;@\302\311\206J\316\221[@\014B\237\302\234\'?@.\360\023\010\351\032b@\271I\267b7\350R@M\234\251\300#:`@\347\017\203\301H\203R@Q\n\243\320r<a@\'\376\375\262?\360a@=4\r\211\300a`@\r\027\025\365\374\355^@12\324\350\271BZ@;\236\322\025&\330a@a\226VL\025\233_@\037\357\204B2\203^@{\260\031\255\216\nU@Y\026@\177\020\225a@BqC\344q5`@\307\322\032$\314b^@\324-0\304RXP@\010\246i\254\371lO@\260\226\034\355\344vG@P\254(84\rR@\177F8q(\034@@\331\014\017P\022\350`@\204^\255m\203\253^@\023\25217\250\362P@y\360-\352\376\350T@h\223\241\017\3033L@\354\256\204x\314M`@\300\035X\327\214\225_@mn\207z\275+R@\364\025\330\227\312QI@\330/\324\306\277\225J@KU\245\202Md^@\300r\215\204\031\032P@\302\241\245\357\2006P@\023b\361\225F\000D@\257\335W\306\024A@@\224\341\343\300JdV@\034\253\233 QS_@\306\333\022g\225\243Y@\202r\017J\260\350Q@\271\252S\333\210 a@j\305<N\017YP@\350\271\203l\253E`@.\035cG\264rU@%c\300\275\205IU@\301\222\031\320\313\026d@]\225\250\037\001\004^@\266-\263(\214\315R@\005\306\310\210L\337T@\237\025\357wL/T@\242o\300\343\336\252_@\241\231\266\241F\314d@\230$\223\035\270.K@\"x\2610N\327X@\016;7\325\365\253M@\n\2719I(\267b@e\3151\353\027\017W@\021\013y\266n\006=@&}\304v\354v@@\224\233Z\246\003\313A@\255\316\237\354\300\364W@\203\231\266 \244\254b@\3537F#\324\031\\@\325\3417}qWd@E\\?\021\275\251S@\232\2166\353Rz@@\221\231\205\264K\307Y@Q\300+V\231\001Z@B\2248\242\202\323L@\3374\361\306\267\265a@o\345\352\005\023\333a@\312qy\350\204NZ@,|\267\300f5Q@NW\r\276\207\022C@?_\n\310\342\003^@\264\240\2327\327\236[@\376\022X\273\273\322@@(\256\345\025G\272`@\261\255zL\373\257a@]H \272,\364X@+(\313\370\002\264U@\217\257As\323\253T@7\233\347\354@\316b@\270U\206\347\347\003c@\311P\320\354\242_4@v7\225\234n|T@`\027\236\350\342\371R@\307\0174\323\312\216U@B\357\300\332\366ic@\265\302\tk\'\367a@\221S\223\322?<5@\274#\211k\251xV@\027\271\005_\2321<@\377\237\234\231\355\221Q@+\326\365\302A\253Q@\034\035%\256?\211a@\253m]h_\364a@\344\212\367\367n\311H@\3015\342x,\022_@\243\\7\303#\222[@h\"\243\340?GY@\255Q2\003XT]@\177\227\014\370\021\3155@\203\325<\021_\031@@\322\264\375\221\007\331L@w\354\332\263k\306M@\312R\317\255\367\250`@D\356.\200\253\261_@9\211I\274\230\240B@y3FR\211f`@\202\306>\341\030 a@\376\2357\325\000\304R@\222\230:\374mK8@\337\023\3521\236?b@\364\305\022\222\\i9@\021\300\030uIWa@,\343\2313\002\355W@\300C\\P\275\255b@Uo\204\360E\316R@\250Ys\002H`P@\003rZ\021&?b@D\263\221\272\0356A@\276\3215d\017\274H@\247/5\316\035:c@\003\310\227\023\345\331W@\223\327C;\255\237N@n\330\312\274\310\236\\@H|\334)i\335Q@@\216J\016YvS@\324\247\210NK\217_@tI\372`C$S@\351\244\376\3514f_@\200\335\216\211\233Yd@\006\3534q\244\237R@\016\314L\341\032{R@\270*\215M\365:D@+k\261s4iP@\334\0064\366r\376X@\327\340(\242\330\331T@\ty\026\217\036\263b@\251\306g\254NCc@\273W-\326\003#[@]\225\005U\344\rP@\343\030R\313&\312B@sO\030Y\270\003L@\244\270v=<n`@\t\246\222oW`a@\300\233F\355\352\237]@\306g\265R\001OP@\353F\001\365)\004a@#r\'\327~\310a@\220\350$|\237\275R@\025\346\262R\230\001:@\224\363\024\030\"N;@\202i\360\253\274f>@\020\274@o\250\2747@\323>o\271\360\362Y@\301\022\177\267\233=`@\3246\261\232U C@\375P \227\306^R@=A5y\316\251X@3F\'\263\331\023Z@>7\016p^\215c@\027\344<\035\250WQ@8\006\374\220\311HY@;\252\t^\027\375]@\016\210#\337\223/E@\264\016\022\377p\264@@D\254\025\356\334QS@\332@b\210\272\tJ@O\275\261\002\253\350`@\\\350\200\010\010\256<@Qc\361\334X\376E@\275\220\344\341\343\305F@+T_\200\\\271N@\244\355,\332\330\177P@k\240\333F\242\254b@_\234\270\246\244\222R@\266\340\276\307\324\237]@\250\227\376\206\037\212_@\037B\256\274\027\347D@w\340\2677\r\375Z@\253\036\342\014\354\256d@\254H\202\033\264\323S@qw[\303*OO@W\034k\2013\243W@\241,\275V\372\021N@J\230CB\276\304a@\310\201\313\272\035\336T@\304}\'J\317\360U@`\305|\335\330tS@\\`\235,1J`@\327\022\346\233\305cK@\t\004S\342k*a@\031s\007\207\202\270a@\355\346\273\027\367%F@\212R\"Q\276\2308@|\210\037s\2332b@\211\030|\336\346-I@c\016\030\220E\034X@\350\030/\016\327sV@\225F\346-\377\370D@\n\026\266\303\030\364d@27\214\000\231\273W@\307\204\203\221\3128G@>.\207\327\334\016`@(\346q\204\376\2228@\333\245v\230\035E_@\203\360\317\3610@9@Y\242\030\211\005\372b@\274\225\242\237@\257P@F\232\226\025H\024`@u\325\027\302\310-`@|\010x\366s\230]@\323/\365\251U\356M@-\007/#\312\335R@\203\352\215\245:\356N@\006\030f\366\301\272^@\262p\363F\2276Z@|\242\3570\004c@@\271\n6\245\241\320T@sI\256\366E\303`@(\355ae?\267A@\220ZZ\225\346\361M@\r\222\222;\205\nX@\'\233\231\014\221\204F@\263\'EE2\200W@g\300\362Tz\267Y@2\334\235\265\361\020@@\3626w\230P\245S@\240\214\345\226%fd@x\277\263\342F\212Q@\371`\305\242\3676Q@cS\241\352?\2069@\326\303\323]\252VF@\3411\020+\225hS@\362\225c\341\343\314_@\\\342:\251\233\334U@Qx\335)\277YQ@\331e?\305#NT@\000j#\2759\3314@\257\315?;V\253T@\025\325\024\203~\310a@abT\334\023\204a@\"\372\306\326\032\341Q@&\034?\r\027\272S@\265\220r,\204\327O@S\305a\350\352\374R@\334\356t\237\211\215c@u\017EJ\277$J@d\277\337\023\334\372P@v\367D\301\225\365\\@\250\260!;\342\026`@\202\251Xc$\006N@}\272R\237\201\035P@\242*\032\204|:P@`\307\2479\346\242P@\"\330\227-\2007/@,\r\370\016J\326V@\273\257\257KI\214V@v\354\374eV\177[@\317\267a\213%\263a@\215\241\344=\003\010T@\002\200)a\r\267F@l\267\232$\033\025Y@\372\266\333\325uAS@\201+\345\372nCa@(\\\337\2243lW@4k$\361\277\344L@\311k\226D\360\204H@$\314\341\253\307\374N@\323\223?\0042\303>@q*bi5uJ@\274\365\3179\377*`@\362*\245\023\201CZ@\004\000\212(i\272>@W\3151\241\353\365a@\337\020\236\221\037\364^@F\225\310\252\322%\\@\300\370\256j\361\226_@\344\355Y\017)h_@\203\366\256\001/bI@\022\252\276\345]\364F@\277.\241x\331~6@\351b\200u\031\241c@\211\265m5>\240D@U\335\202\217Y\255F@\301\237\013\210\324[d@\362d\353\305w\215D@\001:6\313\354\315I@D\030_\3311\237c@f\265ip\252\360H@\212 \203\337\000\ne@\312g\214\232:\223b@Z\005\334\254\330\252R@\214\305\tO\274M`@t\317\336m\230|X@\327\026H\000\362\2405@\313\241\266\334\354<b@\251=\361\030S%[@\224\215\265mc\0225@OiUOqC`@E\317V<m\210c@\346\262\207\320\340\316@@\006\235\020\304\234\202c@\230\022\002\323\275\325Z@\230\232\367\370\031\356W@\204\375\303\273\363TU@\365\251\356\267O|4@\272\234\372E\324\002a@\331\330\372\025\205o6@M\336\340\177\3113A@N8a/@\310b@\235\213\261\355\220\337a@\253\016\010\216\341\177X@3\340\326\273\027ea@\037el\300\364\203[@\342\251\350m\004?b@]\277\\f2\2333@\203\324\022f\371\335`@O\037!u\323\207Y@5A\207j\374\277^@\201\366X\354X%P@i\272\210\373\277\362E@\216\220\343Cj?Z@=#\214\035\225\204Q@\212\314b\357P\264^@_\200\322-\303\262Z@|`\016\223hYV@\306\321\362\336\037\231<@ \346\232\312<\tg@\212\021n(\354\345a@?\307\200@\264\365b@D\037\357.[\373d@&\023\212\3744\202d@G\341l\316\206Hd@\241VM\262\314\365`@\033\224\021>M\251e@E\310w\031\3115f@\3537\304\300J\007h@\334;\245\1773\326h@\363\354\010\271\275\031d@#\370\030\'\207\345[@\316\375R\353\345\330h@\005\256\302\374l^c@ o\213j\336td@\373\200\246\231\337\213h@\020\275\\\272\262\320b@\214!\203\275X\251b@\377G\336\245\257}g@\\\245ng\302me@\374\360\346F\366Cd@x\032\377\235\250\306d@\366\342\023K\351Cd@B\206e0j\357f@\211a\027$\353Ub@\251\016e\223y\'e@Z\301w\251\003Mh@R\314\300\027\234\375d@AN\253\356\235\026`@r\204y\035\305\030d@\313H\320\227[\314`@<k\005\265\301eW@4\235\225M\026\342a@\2542\376y\006\370d@<\300\364\313\217\331c@\201F\336\370\306\320e@{%\213&&o_@\307d\227\224\311\223g@`~\032\251\216\342e@Y,U\037-)\\@\222S\224%j\344[@\256?\313\245\215K[@\020\352[\333z\372d@\2563\200!t\257f@M\264\340\330\212\347b@\3377\n\020\260\224b@\304\204\312\001H\367d@*L\030\341[`b@\0223(\3506\370e@M\243\366\312N\360a@\303\201R3M?d@\007\262\302\236\003\343d@\312<\035\270\004\275c@\234\016\215\217\272\233d@\27199\003\347\022d@v\\\032\235y\234b@\372\347Y\206\277\261g@\336g\022\355h\264g@(\367x\267\335\234d@\220\331\271lJe\\@e\030\303\016m\257g@[\302\017\325\267\004h@\014\225\363\256\201\371e@\3361\035\314\365\301c@\325K{\241\275\357c@\r\276\315*|Lg@)\027\256\002\004\033h@i\346\244\312\233\334c@U\r\233^\241\353c@e\001\rT\331Rc@\215\317\364t\224\356f@s\215^.\370\320b@\264\010\236\336\tjd@\307\377\225%\311\035b@\234\254,8\257\275g@\202\000!\223\001Uf@:|\220\214\274xf@\3059\240\254\342\215d@\235\3260f\024\332e@A(\363\017tBe@9\352\277\277hw\\@\277q\264\244x\365d@v|\247\310\333\325g@Zn\r\227\025\257d@\334=\rj~.`@\340\021\326\021\216\221e@\004t\244\312\273\276e@R%\177\327\232\375g@\362\327\002\r\000\263a@\354\322\255\315\016\344c@\201\310\3626\267\302h@U\340\032\316\224\205a@\311B\000\343\336\314h@\246g\'\020I\231g@\232\235D\355e\020d@\200(\224\010\320\250a@\253?\230d\232\036`@_0W\225IKa@\326f\207\2435Gb@\333K\'\253\205\351d@\304h&\275\034\023_@\254\237\212\201\'\361d@\232nKa\020je@ap\376\333\307]e@\276\'\314\256* a@\206\023\303\\c\000g@\232\360\007\337\004\242d@\2600z\007\370\037g@Ql\023\367\027Nc@\"\021\021\216\374\230g@fc\270{\365\224\\@t\t\376\342\t\201b@\026\207\345\341\347\035h@\330G\t\322>\354c@\'\262v`\257\003b@(\265\204\224g\277b@\244\265}\326?\210h@\322\326\363\221\342\275e@z\177\335\231\354\215e@\277\302\r*\3759c@\032\256\026\302\3539a@nR\267m2m`@\260\272i\016B1^@\r\305\315\254\241Xh@\366\373\243\271\251\201^@9\363\n\343X\373d@\323\242\346\237\007)e@MB\313g\302\035`@CF\003\311\205lc@A\265\t\315\333Ud@\242\002\314oS\312c@p+\003\312x\203a@\004f\363\374\r\001f@\t\004\275\242\032\370_@;\032\217\271\351\251g@\334\014\363\322\211\225`@\n+9wY\036i@\362\014\022i\177\353c@rNK\013w\010c@\n2<]\211\354f@\035n\017R\214\343b@\035j\236;\335\364b@0\362\326\177\236\213g@\301\237g\316\006\321c@\270~\375(:\310c@\301\216\002\235\225\003c@EW\271:\342\227b@\002\255\355)\323\351d@Wcn\274\362be@\"RY\302\224\037d@\325\003\361\230[nf@\301#zT|\216f@,M$\035\247a]@\002\307W\323A\361a@\205\256Kp\024r^@d\206\232~\335k_@(\222a\030Y\017d@c|\307#\202\021b@\355W\025\254]&c@\313\324\222\240\323\363f@\267\302E\013j:e@\t\346H\366$\ng@\230\321p\257,he@\345\241;/~\271b@\231\030|\224?rc@\312\007\347J\001\235c@\301\343\235,U\310b@\rW\232V\314\re@g\215-w\350\271d@<\000)\027\264?f@\216\335\260d\'\004g@\004$\022\343\023\270d@\332\325\213\370\005(d@\301J\300\270=\226g@\356\340\275\036\016\200c@\327\235N\365\302\373b@`\213).\224%e@\232\030\216\313V\017e@|\\G\'\375\ne@#D?\236\336\225`@6\255j\034\316\260d@h.\276^i\371f@p\022\364~\021\377b@\327\355\016\276\031r`@\315wa\376\036\320b@t\'D\347\261\265b@\314\331\327s\3101`@\340\010\2778\333\t_@\217\223\251\346)\360c@u!\032,N\017_@\304\371\274n\321Xb@L\376\357\3236ye@\275\247\274\254+\254^@\312pi\264\212\345g@\326K`\346L`e@C\236\263\226\231\036c@G\'1\003Jmd@4g{\025o\370d@\203BT\224\361\014e@9\207[\274\206hf@\312\202m\337\303\014a@j\341\335|\030\205f@\0354\254\376\327\342d@T\nrMo9b@\233\352\277\267\014\007d@|\374\205\335x\242f@\221\256\272\"\341x`@\220\0076\321\320\tg@\341p\371mbCg@\213y\322\337\300:e@\255\241M\237\202\262e@\353\272W\227\t\335e@\201M\026\243\330\016c@A\013$]\364\td@\003\327r\363m\244c@\222\324wvU\306`@\207I\351\357\004\013c@\304\034)8\363!e@\370+\362\374\300\ne@\317`\221\177+\243h@\247\350\005\177[Ic@\350\010r\362\025\021`@\310L\202\211+]b@\364\203*\377\363\311b@_\206p)\216\233b@XT\270N\022fg@\213\325\355\346\300`e@\227\320\002\027\271\255d@\375\325\342\217\270\350a@\347\304IjM4g@\234W\027\263\035Ff@k\316\247\355\206\343b@\271K\347CS\325d@\344~TF.\363e@\304bN\323\325\277e@u\351\357\216 \205b@\006\214\361\034\367\342d@[_]6^\"`@\022\353\037\216\244k[@Y-\372\01426I@\301^ae\225Wj@{\300\002\002\304\264i@x1\'\240\370\311W@\243\340\331\007\234\347W@\374UHD\n\332d@\346\374\3463\317\\h@\326\274\210FN\347`@ex\375\307<6i@4\271\335\310\306\373[@\250\306P=\312\316a@\001\206\231\276}\307[@##c.\217\260p@\022\200?V\035\231i@\006u\027\256\306\214i@u\3432\365\344\026d@g\002E\3553\234b@\377\356[,\210K^@\230;\224\032\316\231f@hl\245\030\006Oa@\314\323\321s\n\rf@\377\350\246\3556\342a@\360\250\rj7\254j@$8\342.\362\307f@\375@\315u\325!k@\252\256Z\326!\313W@\230K\363#\363\030l@\023\307\345\014\340\377f@\376&\307@p\315p@;F\214T\253\242l@\021\214Y\321|Q_@\032\234\350N\326\360f@?&\033=\363(d@\371t\n$5\370Y@\355&\216E~eg@\254U\232C\230p]@\313\005v\345\027\273h@\035\357\340\217\366od@,e\316\024]\266l@\021\310`\001\331\221_@\351\362\267\200\336d]@\374\3108K\tdd@\345~\021Z\r\256D@5z\220\301|9b@\206\200q9\372\337p@W*C\263\206\207V@&4B\305\017\372k@Cr\325\027\nzj@2\023\236@\246\242h@?,0\316\351\305\\@\220fu\0019\211i@_S\305\236n\334`@xL\177\235\214<p@\024\301,+$\276i@i\321\313\213\254E]@B\0041^\236\271i@\340\300\023\273\246\222q@\260\374\343\023\357\371b@\24090\n\233-i@\360\0107\257\361Ua@\201\356\207P\327\206c@\247K6c3\273T@Z\003\246<\222\330h@/\272\334\017mOh@\276\036\035\234\357\253b@\2403U\221M]Z@\n\244r\026\203 `@\002\035\262\273\035r_@\017\223<\214\r\226q@\034\036\363\034X+\\@\272\363\265\335\022\301d@U6}U\314\306c@|\354v\343n\026d@\266\247+$CBk@\364\224)v\"$n@3]\274\220\210-e@\267\346C\332\301\222k@-Q/\036\216\024_@\033_\211\373\357\004h@\214\021\\\207\236\177a@\262E7\213\355\341d@\303\273\214\366b\222j@S:\006\343\247\'F@\014A\206&%vb@\001\274B\022\315\227Y@\0266\010~\356,f@\321_\344\016\216\207d@\203,H\250kfh@\335\020U\221\021\260U@X\353\207\265\025%j@p)\025W\212\336g@\316\265\214\n.\341o@q\331\240A\320\325i@g|\003\376\215\204c@\n\355\323\\\310\266h@\371^mi\235\246_@\315\223\340\225\035\337_@/>\303\261\006\327X@\026db3dbe@\313\353\3621\203zg@\223\275b\351V\363Z@\306\354\356^A\320k@\266\t\305\331q\244[@\27305\031\310!W@\317\257GB\264\204V@\205\220\200&zfn@\346o\262\350\303\374^@]\\\0373B\276_@N\346\355[s2c@\024\202\347%\202\353n@5\244j\236\237Io@\214\212\224\216\210\362m@\203\204\232\353\272\340i@E\353\025\226_\244a@\321\342\354\032+\025W@uZ\240\231\273\273[@\325\326k\263\016@e@W\275}\024p\265e@\017\206M\n\250\311d@G\327q\034\034Ya@}\245>?\201Zi@\030K\261\357\203\222`@6EyHdpd@\nz\370\003\314.`@\310\273\246\355\325Zg@\n\361\3534\327~d@(q\033?\377\310Y@5Q\215\303\016Yi@\266\347@vv\344V@\331\354\302\363\265*e@\"\232b\024H\334j@5\\\204\363\233\324d@\003\327\230\350hXc@dk\231\221\314\263b@\007\'O!r\376b@UI\213\346\032\nf@\231o\343W\244\032f@\321M_ph\ti@+\233\260\017\2330m@\020bf\237\245{b@>Z\363\366T\000j@\341\307q\353\330\345X@\'\354qm\356\335`@\013\005\201s\372\304i@\302\337g\014\317\326X@\212\264\027e\240Dj@1z\220\031[\322b@\275m\246m\004\361e@\377\312\013\216f\037o@\340\311\036\246@\232b@\366\334\204\3665\003`@3\227\253z]\340b@\3268$\032\3060Z@\334.\002\026Z\202l@<\322j\007T\365c@\2009\r\302\016\374h@\241C\277]*\256[@\013\366\350\3017\257b@\033\247\225\355\237\007e@X\311S*\231\342[@4$\006\322\302\220l@\n\025\242\262\'\\e@>`\271\3162\224l@\327\"\035\211\037jh@\305\207\303_[Vg@\245p\031\262J=f@\031\013\215C\244Om@\357\355\301\304\003En@$\220z.\315\372Z@\263\315\266\340\230\223[@\243\354\367\321\376lp@U\221\260\'h\252`@1\346\034?I\277h@V\027\017\226\320\343l@\274\006\355=:/k@\000N\256i\223,Z@\203\226\220)&\325i@\276\272\277x^9d@\217IQ1\322\014b@\023\343\372\347\244\021j@=C\t~\373mW@\326\351\245\305\266\214h@\336\352\324\367\350\tD@\336ywU\026(e@\2474\231\323\332om@}\302\261\327M\th@E\035\313m6\312W@\233\217)\311\231\267i@=&\305\377!3m@\214\230\245\266\226\006c@-\364\220\225\305\276i@.6\2357\"\326a@\017y\277m\216\345g@\353\343\003Do\027a@^\026\345\235\355\n_@\033\352aq)\270a@\025\300\252\244\360\204a@\202;\215\032\337\227U@\372O\212\035\356)c@1\242\313\320\354lb@\014\314Z6\006\335g@\004-1\267\355\000b@\301\212GBl\002h@\300\350\323\n\375%l@\\\212b\212^\234Z@\r\266,}\2330g@&\210\300\260}\331h@\351Uj\345\362g]@\335\305_L\261Kb@\230\277[\237\360\240]@v;\263-\210\nf@R\305\230\256\t2f@b]\315p\360\360i@On\220\026O\221p@P\375D]y\264j@\274g\353k\224\362Q@m\003V\260P\222f@\245\344+\2524~f@\3711\344]\324\335Z@\312$\356\320\234\232W@\234\231(\027{)U@e\240\321\322\001\361e@x\277ic\277\'\\@\251v\360\247n\305h@\324\377\033\344\014\002j@\306\370\357\365\261O`@Ez\250\230)\263[@,U\257/\235Uc@t\377\177\207\237\260i@73\267I\241\rj@y\226 #\223\022q@\237\374\370\354\365Pb@,\007Jq\214\235X@3\344\215\237\311\211\\@\236\027-+q\223f@\2009\356:y\346h@\021}\275\373tle@\224\237B\255\373qf@\214\t\260WSVf@\313P\246\356\232\371j@\250\204\006\267\362\300i@\224\366\201O\034\243b@\022\010PsY\324i@*\312%R\221\225n@h\232\372\345N+X@\035(\346\361\035\374`@\r\231\205c\001\371`@:\246m\367(\022m@G\020\260\242\234\010V@\260\263\312+\2079X@\031\226(\314\n\354`@6\363\374/-\243R@\260\210Qp\366\212c@\306\342\352f\253\310b@#\264\'\201\021\306h@\202^K\222\274\033g@\245\335\270\301`9a@\327\230\326Z\321\315h@Po\357\2045\362d@9\027\005\316\307\363e@\306<\362d\275-Z@n\007Y\360\372QW@A\234\262\356~\343g@(\336\311\331\355{a@\313?\033\031F4\\@\353TX\243\335\337d@ Y\250\331$SW@\321\030c\274\022\034i@V\251\016\205\342\352h@\315\274\314 q{a@1>\255\276\273zc@9\017\316\272[\362d@\031\345c\213\344pk@\307\023\t\032\216\305d@\372L\315\322\325.V@\237\274\241q\0141`@\001/\340\317,\232g@zD\243&\342\272k@\361\3038\237\344\356c@\240Y\321\003[CU@\376+\240\342S\tf@\321s\206\227\212\361Z@Gc\374\271\n\030_@\204\257\303\332l\316`@\033\255m)3\355`@D \266/\213\334d@4\004\t \263\302i@N\210}\033W2[@\017V\023C\304\364b@\315\260mbu6X@\276\003\361\364r\243^@\211\336\354l\177\330X@\317e\007\027\246$d@Dk\014A\032\271f@\231\243\372\374\n\250h@v\031\300tlnl@\337\366\0024\020\245`@\000\3514\2702\361W@\242\311\342\231\006&c@K\362\370\366rtc@\360\2536\035+La@\026x\260\237\377Ga@\005\277\351\374\313\370d@\250\221\232>\340;l@#\300h/\366\255c@I_\301,\273Kc@{\356\275-\035\346f@\200.u|\370\344h@\236\323l\272\311\266U@lD\354]:\331h@{\252\351\033\253\007a@\361\363n\265,NY@D\344\2731\031\343d@\017;~l_\033e@\200\204\230;\004\013e@\333\"|<\033\314c@\320*\001G\246!i@!s0\224\032A`@\204_I\355\277\213a@t\242*/qnV@\356\341\204\024\027\337f@M\337;\202p<`@\232\204\025\233\261\274f@\242\036t\222\225+m@\251{\375t\334wX@\345G\010\366\327\'b@S\275\232\226\360\264V@\276\025\247h\3179^@7\367R\000\347\265V@v\330c\344\262\013i@\367\213W\276\246\326d@B\3348\250\334\266Y@\215\033Y\030\017\270Z@\301\235\026~+\277h@#\255\t\320`vb@\333\267\036\234GA`@F\0101m\033\276^@\303 H\260Iig@\n\n\311\316\'zj@\324c\325\247%\336X@d\364\273\000\2235f@4\001\262 \201U`@\t~\304\310c@]@\234cG\236F\361j@\377\016\034XZd`@\255\242\032&\340|Y@\3602}\300\035\257k@\377g\313\216\271+`@\250k\251;\037\033Y@n\227\373\252\217\300j@\362\350\313\257\024\307]@\314Q\223\032\003\345W@\005\336\030\020\353\324`@\232S\261A:\205e@b\341\215Oe\274_@\264\224=\375\260sa@\034\214\233\212\327\227T@\331>\257:OTd@\353\362\270\222\360\tg@07\361\354\031\252b@]\354R\026\274\205W@\t!\367\317g\240[@\276\372\270Q;|Q@\243\362\t_$\032U@\204\030\007\352\322&k@\017\240\216\2414hU@\267\307F\355\3439Y@g~g\261\033\374Z@\r\256Ca\006Rb@=\304\273\004\214\241S@\263\332\"4\262\233i@L\r\340re\204d@\301\345AK,d^@\270\374\275\356\375\342^@\376\350I\371\260K_@\001\201\276M\206\320k@\355\033\003t\271\377q@\275\257\256\2723\333W@]\3307\235\315>h@\236\210\013\353Y\025f@\226|^\356_\033a@~Q\275\371\004\361d@\246|\221\336\206@^@a\306\031\272C\275e@\323k\227\016\205\016a@\253\005\256\201\220%m@O\020&\350N>\\@\231<\266\365\001\256b@\262\241\356wbIa@Ps\216\315\2539X@TvO\226\"\017h@\346K;\334\213\221d@\357\211\340\312\273\374d@\225\357\313\212\016\255m@\275 \263\304ZSh@)9\361\345Y\321c@\346\303*m\326\355V@\tA]\350\222\207j@-\034\n\2370Ld@\351\254\013\017\024)e@4K_GD\277k@2b?\235ELg@\3210\n\005\301\364V@A\345t\270U\017X@\240\240\223\236o(c@\236^\212\034\373sW@\304\275g]=hb@ \022\311\334\363\201i@\235\312\204\300\325\213W@\271\030\277\322\312w[@\006)\322&\002\302V@W\223L/\307\377S@\002\n\271\306\2215]@_7\251\200\245\337`@\326\214\r\2306\377R@W\332\276}LBU@\225m\273\350\021\245a@\335\313x\235\314\210f@\360\244?*6&b@\235\374\254\3210e^@\305\340C\007\022yU@\365\010\374\201\\za@\005\272\273x\332\305a@g\034\207]\227\310V@W\201\275\374\337\200V@\035Y]$1\005b@\r\004\217= \367d@1\231z.\374\331W@\331%l\331\0354^@ \333\362\317\261\025h@\276 \266\201o\310V@%X\374\254/$b@\263\275N4\205)h@\333\017\245\237M\007g@\252R\252,\362\032b@2\270\'R\335\323f@\023B+\360\037\025g@\272\2728\004W\265V@Z\337\363v\t\241h@\244`\244WJ\033g@`F\035\317\217\253a@\373#\034\237\213\363c@\036\221\177.v\345l@\241\353\233W\211\204h@\001)\000\216\326id@?\017kZ\222\013i@\350X\211\234\206\311[@e)-\006\264\267b@\306\330\274\307\310\366f@\340\275\364u\276\363g@\354\357\006z\022\375X@\031\212\021\272\305\267l@#\010\331@v\355a@T\275Z\331\'\202Z@v\217\246-\024\307[@\315\237^\376\306\372c@e\233\361<\333\030h@Z\r\0379{\240b@\304\020\2032P\335W@Z\034c\240\371\365k@\371$\221[ >V@\375\233\237\371\300\373`@L\035S\302\034\306j@\252\257\016\246\266\356e@\"8\005__ck@\324\200\337\233x\217_@\000\311\313\334e\037j@\\a\272\265\302hi@L\253\320\377B;X@/\251(\032\362\366a@U{\"\221\263}U@\013Z\267y\265\334V@\242\272\334y\213\355i@\"\021k\035B\304`@/\355~T[\007]@\266\024^\345\276\361\\@47\325\273\271+h@\266\360>[y\363d@G\353+\265\315\252c@\240t\265\330:*a@\215p\223\326Jmb@{\340\010\325\3142i@o\373x\356\004\327b@p \341\352\367]l@\341\234e\3755\241d@\236\210\024W\035fa@tv\230\2718rn@J_\317J\361\322`@\331o\215\235\033+d@5\310v\245l1V@~\232\201\354c#p@i}Y\307E\000g@\357\322;v@\017c@+y\272\272\266\274i@3N\337}\225\274_@1\004\336\201\376\277Y@Hf1&YUk@b.\013o\013Ze@\033\233\221\317\205F[@l_2\035 qa@\317\207*\312\262\243r@\331Uv\\\337Wm@\251^\357\273\017\200h@\335\016bG\235\264\\@]h\271%\tob@\353\253<\037\300\257\\@3\263\213\023\246\366[@\2308[\267|\340g@\250\024K\263\244\027h@\262L\205x\347\275i@Um\225\330\r\217l@\022J\no\252\274e@\371\331h\240\022\330l@\237\016K\226\221\267\\@\037.\256\226c\001a@YP\211@\006\230[@\300\221;]\307tV@&\224\333\362j\010q@f\317\352\231\237>V@2\234\255\2045Rd@\'\224\304\360z8Z@XG\253&\275\277Y@\331x\313\257\362Fg@\n\326\221\243\201{p@\213\264\227\024\222\004U@lx\200\024#\346b@\235]\340\205\351%f@&\333m\317W\264i@T\240\231,K\271Y@\313\"\022,6|d@{9\203\374\234\356U@ri\321\3445va@urZ\270\265\204o@\032R\204\'\210\213a@\016O3\021\253-[@(\200@\010)fb@)\343\217\322\336\221m@\335\255\307\261\323Qg@9\355}\322U\350b@\0326\271f\243\234c@\001\221\000\354\032]S@\372\332\223\366\224}Q@.\255-xXz`@\275\3435\367\327\202a@5\270\335\203/\224P@?\3130=v\200I@\037\277\352\301\247Ga@~N\026\243\236\025W@5\026\275\222\250MU@\224\241\361uS^K@\216q;w\020\350V@\265\225\373\203\271\311V@r\025S\035\233\333`@\017A\237\323~\352C@\356\246g\360\333\222^@mW\224\035i\216V@-\214Pw\0267`@Al\3223=\000P@%&\355Z\337\335J@:\320i\210\300\364R@\376Z\r\t~\3300@\350\335\324\347\265#L@#-\357\255\241\205S@\333Q6\377\003\215S@\316\204s\224&\346[@>\245j\325\253kX@\3142\304\321\330#[@\237\300\326 X<Y@B\256\241D;?9@ 0\361\260^.S@L\205\013\321\277\013`@Z\325\234\235\367\263Z@V\026?kE,L@\244S\307\226m)W@\343\001+\363\004_8@\217\353\005`W\231X@o D\333\270\305_@\351\322\331\372\325\231H@6 \361\303\034\0048@\010kb\245EtR@\034\016e\350~z,@N\325!\237\203\032Q@\352\330\026\322k5[@\366e\242NX\300H@\315\201r\266qW^@\326-v\004XWX@\004\230[J[\247M@\020\244\003\221i\343_@\361Bmu\001\356R@G\227\351e\210\247V@\037I\303Q\343\332]@,8\216\001G\031V@\260O\017\233\"\346A@\3209B\223\033\2263@\273\006\n\341H\323I@\367\026\342T\301\225C@3\025\337k\215\333H@\317w\353\247\243\240\\@\376\311rRC\323Z@\002\370\361\003\001\315E@\323\266\256\240\225-Z@fn\220cX48@\202\206\010\227X\274F@\271\345\262p}_V@B>+\313\372*X@|\232\301\243\245\347R@\3042\312k_#a@\321\004dY\210\264N@X,\254)V\302#@\365\004$V:%K@\340[\360\222mML@\231\321\232\255W\267D@\277\225\301\360|\216S@.\363C\267\236VI@\317^W.\365J+@y\222\366\025.\306T@\222\255\250BN\322W@\000\364\354\320\277\025Z@6\376wx1jC@\277\007\236\211i\014a@6\201\375Fz\nT@\222T\372\326\003\310Z@\014\260^\374\216\227^@)\033\356\221\212*K@\274\277\276\267+*`@\010 \027\033F\217[@^?L\315gOa@\230\221\351\016\221\210X@f9\370\013\305\024F@\241\336\365(SS`@\037\357\024\376\357i8@\"\010E\224+\005X@\360\302\363r\210\301Y@\220\370\205\253\264.S@hM_$\357\304Z@38!K\224W6@\356\270\202\205\006\030\\@\001\225h\256\273\311=@\010\324\361\350\333F&@\007s\035\300\364&,@\016G\305\256U\306[@\r\247/y\240\020J@)\300l\004\370\033`@>t\177\244\216@]@|\010\003\362$\332-@\210c\032\220\3468V@\226\'U\243\345&A@\332\223\210\2769ST@XN\342q\\v^@N\337\217z0\337P@\244\026\035\345\316,]@>B\000>\026\005O@:\260\365.^7V@\301\200\254\220\316\304#@\312\341\261\244\201\363T@f\020\017\345\347&Y@\244`ue\316i4@{\330\177\035\326\\`@~A\254\nT\354S@,\267\036\2119\223X@\226\350y\020g5a@\273\353\311\356\240\0027@\362\323\207p\036\362V@\254\231\023\n?\275]@J\313\212\303q\027P@\315P=\324\233\224D@\267h\334!p\303M@~\002;\272\375HT@\251V$P\035eT@/\220lu\242V[@\010\303\334\344/\363,@.D\307\027\201\375W@qF\205\357.\226Q@sW%\211\340\r\\@\201\247O\300`\037R@\010\320\311\227\263\240-@\177$\311\013]\010`@i0\253\276\371\030V@\257h\347\220{\362P@\234W\254\t\033\036V@\307s\004\356\376\001P@6(\254\315|4R@\326\307\267q\251\004B@\030T\366X\343\004%@t\227\251\312\000\275`@\201{\005\377u\202W@~\306\326Eu\027_@\375\212@\324%\330U@\363\200\265\232\031/2@\356\240\t\315\226\317]@\230\177i\026\244\037]@\217\tPv\272\322_@c.k\236\344\021.@\3038\302\226\001Ga@\231\366*F>\313\\@[\246$\030fTa@K5\264SjhX@j\222{A\257\244V@\230\260\036\021]q\\@\366\302s\211\327\3309@\003\232\343\305o\224Y@K\2601\020\303\037a@`\202\376\213\032dS@\274\245\2348\"#H@\010\2501\351{\331S@Y\316\003T\332\266`@\347\341\242\275@\355<@\326\ti\225P8B@a\024!I\302\036W@\205\372\313f\273\276A@\230\237\021g\216\202W@\273\346\236:\006\026O@\274\232\300\200cgX@\\+=\230[\"?@&&\302\n\263oE@l\211\027\355\371\273P@\276\224\377\211\216\2460@\013L^\024\3123I@bv\033\220c\3030@H\330\216V\351\215K@2\212|\246\261\245a@\275\317q\256wx_@Q\265%\017\343v(@t\304FDU\215L@\360\321\\\312\001\263I@\016_\257M\345\213G@\204\365\232\263]\265U@\344\217\002\017\364\\_@%\2020\027\311.M@\231Q\331\331Q\3426@\232\n\232\231,}Z@D\220\024\232\233\351^@\"\000[\362\034\211U@W\307\220\025\222\310^@\256\301\367M\277\3471@\234\240Ag\"1X@\363t\224\357\371\024:@2\311\326\032}\263[@3$\274A)6X@\272\374\017\323\226\3754@\263>\2608\2777J@B~L\001\261\244H@||\003\227}\2550@\251\022|\322\204\260I@\253\310l\331c1Q@\270\300lL\220\260H@\'H\031\201oA_@^\025\313g\300\'[@`\370\352\276no[@\351\270\025K\277~C@c\037\034\352\317\255X@P\252\004\230\323\303?@\342\257S\205\350\376O@D\247\002 \365\216^@\326\316\'u\314\277X@\333\\\342`\220\353F@qCl[\307\270=@~\342\352\303\205\243B@\266I\213\224|e%@\251\335\336\360\305G[@\002:\211\211x\247Z@\311\343~\025\303\325E@;\256y\375\325\210_@\006\373\306\210\256vX@\266J\000w2\037W@5$\2732U\330>@\345\202\305\003TGX@]\'\2509\034\222[@OT-]\360\3656@\271\305\026\267\363\370[@\006P\007\316\362\0330@\366\340\0002\rOS@\273\tYZ\034^V@\276\212\260x.bW@9Nk\227\013\026Y@\233*\230\232(\267+@\307\"\204\353\354\235A@M\233[\210N\031N@\356cBa\306cX@\224F{+\0338*@\313N\227\316\374\033U@\\\177!\224$da@\202\3049\227\2763E@\023\034Z\342f>P@\231A\234(T\202\\@\221B\345\260\2472a@\362\357\327\202\231\302X@\r\241\270`\374\264`@\205\250a\346\312\203T@\366\260e|P\003R@Bl\262\213nUM@\221\337yQ\376\220L@\204\027\314\245>3[@\312\224\344\240>\031Y@\370Ypr\207\037^@B\301\232\361S\026]@\200\313\251\355sS[@o\321c\210?\362S@\026x#\n \357T@\237\304\023\360\274[[@H\r&\215h\036X@U\033\340\201\325\230g@\016\010(\201\0250U@\310\213\300*\274\336^@`D/\177Q\262_@I\222{\302\241Sf@\330\n\221u\377\350`@\321;J\277IdU@5F\237\325\031)\\@\315n!\325\326\230V@\207,\316{-\216f@|sH:qYh@\263\326\242\251_Ci@3\223e\230\341\206j@U\344[B8\013l@\307\301\3520v\324h@(\204\321\320\322\362Z@\237\330\310 \341Nb@jm\325\034\3061T@\201Wb\020\014?\\@\366\377\220\244<\201Q@|\320\234\260\217^l@u\375=\033\375\330d@\212\254\321h\340\360P@(\251<\274\250\325`@\316\227Hx\256\016d@\216&(\240\335cT@b4\371\206}\341L@8x\212\024\3034Z@\260\227\230gY\201W@\350\302&\276G\254^@\032\252\316\212\260\321^@\217bR\335W\rS@\002j8\021\300\002Q@\002}d\312\302\033g@R\367\224*_5f@\035d\346\275\215QQ@\321\365\272\311\245\353i@\3069\306\035F\223k@s\226\262.\323\001X@\021P\2078\247fc@)T/\257?\270`@\217-\353\273\360\257^@\325\323\333P\235\006a@\377T4\234x\346P@\035p\372\260\224(k@k\327\234\023\377\tV@\321\021PP\353\254f@\002\020?\360\3550^@p\314\307B\000pZ@er\337A\316&k@\347F\324\216\030\327Y@\017\022\363#`\'[@\036\266\300B\262vW@4\024\277\0373\300i@\210\"\0339\332\264i@\302|\344\303\327\256`@\275\035\370\006\373\315h@\263(\344\363O\027e@\252L^4\376\306c@\365]\202\200\356DT@\316\201E\371p!f@g\304\252\315a\025f@\300 &Y\355u[@r\021\323\352S(d@\010\016l\357\023\321h@\032kz\006\327!S@D\2422\262\327\246d@\315%x\t\276\325f@\023\010\226\374\240\250S@e/L\267!\344X@<\376\016\355\260/O@\335\372\367\004\227de@\277\"\217\277\224ej@\330\002s\303\365\372e@>\330\037\210M\352d@\n+\032\r\341D`@7\232\372M\3422U@M\203\213\262\023Ki@\327:o\255\333_[@\013\260\241\'\257la@v\254\366\316\256GZ@$\202W\333!\304h@\r\006b\341\236\305j@\253\223\262@w\214`@W\244\316\031^\275K@q\202\325\t\352\206j@\327$m\344\334\220T@J\227\236\254\267\237U@Vu\245{\025\217`@\'\031\037,*\260_@\377\367\363|\006\022Z@n\340\326y`Ec@\275\303\331\274Q\366U@\304\313\251<y\243[@@\347\264\353aRW@?\007\377\005\377\311i@\240f\264\271k=i@\273q\267m\347\002k@B\245\177\260(6\\@M\273\031w\322Ak@\002\010Gt]\300j@\272\r\327\321\217v[@\310\033\223\001\207&]@\210=\341\337[\307\\@\367\310Z\313\322\344`@}a\034+\274\332h@\316\304\301\330\226rd@*y\204\223]\022l@P\300#\'r\245W@u\302Y\233\323\022R@\327\030\310\232\000hb@\372%\273;\354\nh@I\2071\021\252yV@U\267\273]\253:X@\037\303\002\235\372\372e@\3557Om\004\032e@s\373\366Z\211\215]@\357\220_C\357\336P@\263t,\276\373BO@Vk\r\242~fb@Dk\326\305\t\340g@\357!\306\253\372\367h@g\277\036$e\352a@\312\005\034\260\347;c@E\350\331!\320\352f@\364\177\247\250?Mk@\023\344\333}\222\323e@\270\312\203$\177\343g@\376\2357\325\000\304R@\024H\003\332n\222_@g\306\213M\250/`@\257{\324\271{\234T@\346BT\273\213 j@`\323\364kq\201P@\027C\034Q*\262Q@\243\260D|:rd@\330\220\301\242W\331b@o\231@\005\202\374^@\341\210\0344\237\320^@\370\235\354F\030qe@\330\007!\312X\221[@\251+\\\001\360\327R@\212F\233\371\217\217d@\226U\355\027\\(`@\211[VM\306\366W@sR\353\022]\024j@\353x\354\037\235\234Z@^\262\242\275\007\310i@W$\373\030u\036d@\225\330|\261z\030d@\177\367\317\035y\006b@\225f4aw3d@^^\217\010\351\323c@\251\343\375B&kk@>\266`!\206\344i@D\014\274v\242.j@<\302c\257\244f`@:]\236\273\004`j@U\343a\310\013\230`@L\2217\324\236\301k@\3602\322\202CwY@\325\247\202<\010\232j@\'\371F\023\222\267i@p\304\022\307G\370]@\026\337\230E\020*Z@\340\333@\332\345qj@\271\277\311U\016\232h@\t&)2\225\314g@\207d\267\320\031\221h@j\033\223N\'&a@\311)\337\304P\325h@\203\374\363\021`\"b@\364\177\332\352\006ai@>\361\300I\235db@\006\256\374\007\274\236Z@!!\264\323\357\377S@)\210\227T\375\263R@K\352(?Z[^@)IIv\355|j@\210\230\331\330\360\356^@\354\033\250\233\211\240\\@\372\242\032\247\205\234a@\234-_\331\203\352f@\356\247\n\346\r\214j@\222\353\003\307@yh@\321\231\267j|\310h@n\316s\311\233!h@\225\341\335\371\202\252j@\371@\026\364\251\331T@B\320y\326G\341h@\312\226 ^q`i@\201dqK\325\315\\@`B\277A\2105Z@t\301\247T\036\"j@\017W\006\252\206\301V@\253\"\361ao\352a@\217\250\346\352\230\220i@\3509\030\257o\231k@\255\314\224S6\366i@\013\r\\\225x\003j@\027\323\331\341e\177^@6\002\030\321S+b@\207\317\254D/Th@\005\227\205\362\267\323f@\020\370{5[Ge@\\*\006\277\370se@\021\224w0\307\334l@\310\251\3748\007\361c@\211\245#8\210yf@\361`(\235 \205V@r\014\360\022\353\236Y@\201m\341\2156\217e@*\027N\215\342\t^@=*\316\'Flg@%\223]f\222\353U@3[\377W\032\272k@+\216c-g6Y@\330\341s\340fEa@\2537\'\234\rSc@\365\261n>\3405`@\257\330\350\223\245\250l@Y-\262\311\360\367c@\316\351Z:\374\221_@\006\225\n\234\302 i@\005\361\031\276|\211h@M \303j$\352d@\274@\216F\255\021b@\n;\224\\\305\354[@\261\222y\271\020Sl@\254\232\264\222\t|d@\255{^\016\262\005j@\213\'\0304\027\275i@[q\377\022\302\226g@Z\376\216J\r\255d@ \000\363\362\242\201\\@\250~\021\033\'\230U@\016:\2718\224\262a@\307\346\014\230\347\253h@?\263J\233o&\\@\031\322\377eb\226`@\203F\252a\034\200[@,/\357\033f9h@\354\377\247\261\232lc@\204\345\240\t=\230c@\014\177\372\n\332\266d@T\022e.\0245a@\316\302&\202\245\371X@\317gv\255t\355\\@\364\347\271\027+\347X@\221\350\032\322\315\232d@O<$\024{$d@\220=\217*\310\347W@\375_\230s/hZ@\221{:\325\337Sh@X\371\005\013\224\326Y@W\365p\\\250\236^@\254\320\251\"$Ea@\322\241(R\342@k@>\251\231Zs\226p@\007\025\212^\241\014\\@L\272\264A\303GZ@h\002\010\235Lt`@\335\000!P\367\374e@\332\256\207T\367Dd@J\032\211jm\273e@\253\242\266\014\031Ec@\000\357\373\200\373\347f@<\374\273\300)\305m@\267\027\031\304\377\222m@\t$\237\360\255\307l@;\370\224\343\031\"g@B3S&\316\312i@>O\346\207\007\327h@\000\210\357\224\237\213o@\020\016g&\021\233g@\263\300\217\312f8d@\r[\t\371u\247m@Q\266\312v\347Pk@\316D\372\366\214\220n@)\013\\\205\177:d@\237\342\246\037@\277a@\237\212\253/;\024e@\327\2203)\313Ke@\316 \342\227\3625e@\016\200\317\224\265\237a@\216\035\230=\371\251c@h\365V\251\300Lp@o\265\002\357\223oj@\367\212\026\343\273\260]@/V\331\333\303\020l@\313\232-\335b\013O@\250\034@\267\276&e@\251\351\235\027\355Te@\301Y\376b(\214o@.!\325+\n\315_@\373\370\275\215N\005D@b\202\217\337e\231P@\267\333\003[\004\223^@L\314\217\004\201Vp@2Y \244;/j@\334/\226\251\333\222b@\022\227\313\200\304Do@6\260\311\355\372\331d@\377\205\200\374\204\256c@\220\355<\316\311\361h@\027G;:\223\352d@\033\243\001-E\363f@\214{T\302*Nb@\307\265\235pT3k@\333\237J_\302\310h@\314\366\2718\205\302l@;\236?\246\t\010j@_Tm\224\031\212m@+\034\313r\351Zk@]\236\275\344\277\303i@\376IC\260\327\223n@\3350\363\264\203\271n@[\177\360\0069\211d@V\372\244\214\3357f@s!\263\rQ\201n@\031\202\305\377\266\250b@\337\216\326@\3245Z@\";\342\211\362Sj@\236@\003>N\333]@k[JqPOp@\337\004\2404\016\315f@U&\240<\221\250o@\207\006)\377\310\020p@w\262\206cuTo@\300\317\226\271\213]o@h\014\205p\377\263`@\320}\000<T\377`@\274w\3521\027xl@\026\207[\2520XV@M\373W\364}\376b@\351\372\223\366\372\310h@#f)\344\255-e@pmU0 \317p@\373\372\004h@_m@\205\250\3215\314\010a@\026\037\327#\002Fm@\030\322^\214F\361e@\257.#\305wva@J\233\\\370\336Ad@f\346\336\020\035\221`@\231v\024\333\002qV@\350\373=\273M\341g@>\035\256Y\341(k@\352\004\217\204\256\322o@V\364\264\327\251Nl@#\331R[\213[i@\203\350\237)f\210^@\202\330\332P\306\251j@\235\261\327l\026lc@A\221\326}t.b@\"\361\241\220Bjd@\340\360\025r\373\335k@\177>Q\203\024\254c@\005 So\221\372`@T\3454\321h[\\@!o4\264\312\362O@\200\036\352b?\306`@\262\307\014\361\200\362b@\316\300\016\216f\017k@\370\026yx\346\222`@>\314\375\241\202\255l@W\243\371uBBg@\"\212\342\033\316\365e@\371\321\316D\255zc@=\000]KcHa@\261\266M\376C\255b@\336\374J\301\220\264p@V\027\245\205\265\016b@)\003\234$\2300F@\326\001\214\305\301;f@\3421\342F`vW@\354U\330\374$\372f@\331H\266\254\335,i@O\247\205\256\265\333`@I\316!\2560VV@\223\022A\327\274\356f@\356I\246^B$n@\3353\207#;\217f@\000\341`\361G\nk@r/\347\350s6p@n\267gY\333\216p@\r\253\304;\210Pd@\357<\366\020C\276n@Dg\227\253\371\337c@\256I\215c_\025b@Ik\n\260\243xe@\350g+\311/\266c@\014\323\267\2204\343T@g2e\224\016l_@N\024s\372\3213p@E\201Yf\363V_@\271}\314\253\205]g@\026\\\021\217\355.h@\241\211\314\211\200\336a@\017\304u\352`#n@\224\221\324/\000\036h@\364p\rM\002\335Q@3\361\006\203a\027e@\027\253\251yX\277j@\th\364\323*\361]@\322]c\332(\207j@\371. :\000\307m@}4]\220\344\344n@\376R\211\360\0017f@\250{\003)\024\277m@:\347\" [Xj@A\265\332@p\031k@%\371\224\303^\374n@\333I\"\"\265#l@\276\003\250\320\232Ug@\224y \t=\nJ@\336T\3609-A^@mxP\2235\331d@8!\202it\332g@ms|!\257\210q@\330H\367)\026qZ@\225\2225\263\2641c@\230\317\243\352VGM@@\363\033(\004#f@J\013o<.\261o@\245\301&-\003Dp@\214\306\210\0023gi@\005a5e\226\233h@\225px\214F;i@\2757\020]\214+n@\203\\\250\335\244\304o@N$\262w]\374k@\3620;\320~\321^@\244@6\247\007U\\@\272\000\374H\030\342a@E8as\340\237W@\222\202\223\334?!l@\314\252}\275\205Bq@\322\302\036\240\344\221p@N\257P\377,\333`@\235\006o\360\r\214\\@\352o\200\306\236\005h@f\222\204\340\356\204a@\314\345\177P\273\204f@\242\212\355\373t\004R@\376\020\240\002\237Ch@\354\023A>F2d@R\351\030\225d\003k@j\237\363K.yk@\324\221\371\030h\345n@Y\320\3351\274\357f@\304:\201\334\275\034d@B\277\226\322$\003c@\335\221rR5Te@\250\351m3\225\230[@\037E\252z\251\025i@\272\016\310%\340\350h@v\014\374x\343lc@\303\303\nB\305-k@\275\257\253\276\271>c@\304\204\356\367\352\204f@46\022\346\256\252^@\3355\363!w\266`@\246}A\017D\"b@\034\363X\2240~p@\212S\337pf\352e@\232\022\207\320c\270\\@\324.gB]Ff@W\025\376\241\346sg@\026vf\004\225\376e@\324p\033\312Q?l@\335\363\014\313_\'p@\361%\001\206\246\322f@\334\003\250\355\007\010j@0\210E4\306\220f@d\235\332\325\203yW@J\217\030k:\370k@\207\371\232\277\322\036n@~l\367\020t<k@\010po\310\310~b@d\214:\305\250\224p@\353~\325\235\341Ni@|%C\260h\244p@\262.5Y\024\313h@\017\3509\001V\035Q@r,\014|\237\233T@\263\226\343\366\242\266c@\177\271\304\021\016>g@\335\233\276,\005*m@"
      }
    }
  }
}
node {
  name: "tensors/component_2"
  op: "Const"
  device: "/device:CPU:0"
  attr {
    key: "_output_shapes"
    value {
      list {
        shape {
          dim {
            size: 2305
          }
        }
      }
    }
  }
  attr {
    key: "dtype"
    value {
      type: DT_DOUBLE
    }
  }
  attr {
    key: "value"
    value {
      tensor {
        dtype: DT_DOUBLE
        tensor_shape {
          dim {
            size: 2305
          }
        }
