node {
  name: "global_step/Initializer/zeros"
  op: "Const"
  attr {
    key: "_class"
    value {
      list {
        s: "loc:@global_step"
      }
    }
  }
  attr {
    key: "_output_shapes"
    value {
      list {
        shape {
        }
      }
    }
  }
  attr {
    key: "dtype"
    value {
      type: DT_INT64
    }
  }
  attr {
    key: "value"
    value {
      tensor {
        dtype: DT_INT64
        tensor_shape {
        }
        int64_val: 0
      }
    }
  }
}
node {
  name: "global_step"
  op: "VariableV2"
  attr {
    key: "_class"
    value {
      list {
        s: "loc:@global_step"
      }
    }
  }
  attr {
    key: "_output_shapes"
    value {
      list {
        shape {
        }
      }
    }
  }
  attr {
    key: "container"
    value {
      s: ""
    }
  }
  attr {
    key: "dtype"
    value {
      type: DT_INT64
    }
  }
  attr {
    key: "shape"
    value {
      shape {
      }
    }
  }
  attr {
    key: "shared_name"
    value {
      s: ""
    }
  }
}
node {
  name: "global_step/Assign"
  op: "Assign"
  input: "global_step"
  input: "global_step/Initializer/zeros"
  attr {
    key: "T"
    value {
      type: DT_INT64
    }
  }
  attr {
    key: "_class"
    value {
      list {
        s: "loc:@global_step"
      }
    }
  }
  attr {
    key: "_output_shapes"
    value {
      list {
        shape {
        }
      }
    }
  }
  attr {
    key: "use_locking"
    value {
      b: true
    }
  }
  attr {
    key: "validate_shape"
    value {
      b: true
    }
  }
}
node {
  name: "global_step/read"
  op: "Identity"
  input: "global_step"
  attr {
    key: "T"
    value {
      type: DT_INT64
    }
  }
  attr {
    key: "_class"
    value {
      list {
        s: "loc:@global_step"
      }
    }
  }
  attr {
    key: "_output_shapes"
    value {
      list {
        shape {
        }
      }
    }
  }
}
node {
  name: "global_step/IsVariableInitialized"
  op: "IsVariableInitialized"
  input: "global_step"
  attr {
    key: "_class"
    value {
      list {
        s: "loc:@global_step"
      }
    }
  }
  attr {
    key: "_output_shapes"
    value {
      list {
        shape {
        }
      }
    }
  }
  attr {
    key: "dtype"
    value {
      type: DT_INT64
    }
  }
}
node {
  name: "global_step/cond/Switch"
  op: "Switch"
  input: "global_step/IsVariableInitialized"
  input: "global_step/IsVariableInitialized"
  attr {
    key: "T"
    value {
      type: DT_BOOL
    }
  }
  attr {
    key: "_output_shapes"
    value {
      list {
        shape {
        }
        shape {
        }
      }
    }
  }
}
node {
  name: "global_step/cond/switch_t"
  op: "Identity"
  input: "global_step/cond/Switch:1"
  attr {
    key: "T"
    value {
      type: DT_BOOL
    }
  }
  attr {
    key: "_output_shapes"
    value {
      list {
        shape {
        }
      }
    }
  }
}
node {
  name: "global_step/cond/switch_f"
  op: "Identity"
  input: "global_step/cond/Switch"
  attr {
    key: "T"
    value {
      type: DT_BOOL
    }
  }
  attr {
    key: "_output_shapes"
    value {
      list {
        shape {
        }
      }
    }
  }
}
node {
  name: "global_step/cond/pred_id"
  op: "Identity"
  input: "global_step/IsVariableInitialized"
  attr {
    key: "T"
    value {
      type: DT_BOOL
    }
  }
  attr {
    key: "_output_shapes"
    value {
      list {
        shape {
        }
      }
    }
  }
}
node {
  name: "global_step/cond/read"
  op: "Identity"
  input: "global_step/cond/read/Switch:1"
  attr {
    key: "T"
    value {
      type: DT_INT64
    }
  }
  attr {
    key: "_output_shapes"
    value {
      list {
        shape {
        }
      }
    }
  }
}
node {
  name: "global_step/cond/read/Switch"
  op: "RefSwitch"
  input: "global_step"
  input: "global_step/cond/pred_id"
  attr {
    key: "T"
    value {
      type: DT_INT64
    }
  }
  attr {
    key: "_class"
    value {
      list {
        s: "loc:@global_step"
      }
    }
  }
  attr {
    key: "_output_shapes"
    value {
      list {
        shape {
        }
        shape {
        }
      }
    }
  }
}
node {
  name: "global_step/cond/Switch_1"
  op: "Switch"
  input: "global_step/Initializer/zeros"
  input: "global_step/cond/pred_id"
  attr {
    key: "T"
    value {
      type: DT_INT64
    }
  }
  attr {
    key: "_class"
    value {
      list {
        s: "loc:@global_step"
      }
    }
  }
  attr {
    key: "_output_shapes"
    value {
      list {
        shape {
        }
        shape {
        }
      }
    }
  }
}
node {
  name: "global_step/cond/Merge"
  op: "Merge"
  input: "global_step/cond/Switch_1"
  input: "global_step/cond/read"
  attr {
    key: "N"
    value {
      i: 2
    }
  }
  attr {
    key: "T"
    value {
      type: DT_INT64
    }
  }
  attr {
    key: "_output_shapes"
    value {
      list {
        shape {
        }
        shape {
        }
      }
    }
  }
}
node {
  name: "global_step/add/y"
  op: "Const"
  attr {
    key: "_output_shapes"
    value {
      list {
        shape {
        }
      }
    }
  }
  attr {
    key: "dtype"
    value {
      type: DT_INT64
    }
  }
  attr {
    key: "value"
    value {
      tensor {
        dtype: DT_INT64
        tensor_shape {
        }
        int64_val: 0
      }
    }
  }
}
node {
  name: "global_step/add"
  op: "AddV2"
  input: "global_step/cond/Merge"
  input: "global_step/add/y"
  attr {
    key: "T"
    value {
      type: DT_INT64
    }
  }
  attr {
    key: "_output_shapes"
    value {
      list {
        shape {
        }
      }
    }
  }
}
node {
  name: "normalize_element/component_0"
  op: "Const"
  device: "/device:CPU:0"
  attr {
    key: "_output_shapes"
    value {
      list {
        shape {
          dim {
            size: 5836
          }
        }
      }
    }
  }
  attr {
    key: "dtype"
    value {
      type: DT_DOUBLE
    }
  }
  attr {
    key: "value"
    value {
      tensor {
        dtype: DT_DOUBLE
        tensor_shape {
          dim {
            size: 5836
          }
        }
        tensor_content: "V\016-\262\035\246\201@b\025od\236\306x@\177\207\242@\037\030v@\200H\277}\335\333\204@^F\261\334R\223{@\216uq\033\r\276\200@f\2402\376}>\177@\212\223\373\035\n\023\200@\242\271N#\255\371y@\002\274\005\022\024=z@\373\005\273a\033\313\200@\263\007Z\201!W\201@$(~\214\271\271\177@\240\241\177\202\213\275\177@\014\223\251\202\321w\201@\237\315\252\317Up\202@\022N\013^\364\300w@\241\3701\346\256z\204@5\3578EG\241}@S\n\272\275$\330|@J\230i\373W5|@\251\023\320D\330\001u@h\221\355|\277\273\200@\006\201\225C\013\013\177@%\006\201\225C\006x@\005\243\222:\001\013\204@\305\254\027C9v}@\354\3009#\312\311~@\2343\242\264\267W\200@\001\331\353\335\037F\201@\326V\354/\273#x@\306Ue\337\025\355}@\271p $\213g{@,e\031\342\3301{@+\207\026\331N\275\205@\323Mb\020X\205\201@\032\300[ A\361\202@I\235\200&\302\253z@\365\333\327\2013\026\203@\372~j\274\364x~@\376C\372\355k\224\201@?W[\261?\262\202@!\037\364l\326,\202@\374\030s\327\022\265q@\257=\263$@\213|@[\323\274\343\224\224\203@\306m4\200\2676\202@g\270\001\237\037\227\200@Xs\200`\316\364\204@\201x]\277\340M\201@\247y\307)\272\354\204@j\301\213\276\002\000\200@\276\237\032/\335\241w@\274\221y\344\017\246s@j\336q\212\016J\200@@\244\337\276\216E\202@\273\263v\333\005\366{@\252}:\03638\202@\252\354\273\"\370\370}@\371\275M\177v\\\200@sK\253!q\212\201@\3122\304\261.\373\200@\347\214(\355\r\266\203@$\264\345\\\nRy@\376\324x\351\246\237\203@\200H\277}]j\200@s\327\022\362A{|@\375\207\364\333\327b\203@\027\237\002`<\323x@\020\006\236{\017}q@\271\374\207\364[Z\201@\313\241E\266\363\304\202@\316\031Q\332\233E\202@\234P\210\200CPv@1\231*\030\025\223\201@\0358gD\351\303y@\210\364\333\327\001?\205@Dn\206\033p\220{@\354Q\270\036\205\004\204@\341\356\254\335v.\203@Y\243\036\242Q\271~@C\255i\336qB{@\346\256%\344\003\025\177@\312\276+\202\177\002y@sh\221\355\374y\200@L\246\nF%\227\201@\021N\013^\364\272\177@\232w\234\242\243\265\206@\205\360h\343\010Cu@\274\005\022\024\277\264\204@\265\025\373\313\356F{@\317f\325\347j\212\204@mQf\203Lvr@\320\263Y\365\2717\205@VC\342\036\013 \203@r\212\216\344\362r\201@(\017\013\265\246\341\202@\003x\013$\250=\203@\276\237\032/]\031\204@\211\322\336\340\013nv@Z\365\271\332\212\303\177@J{\203/Li\201@\335\265\204|P\251\205@pB!\002\216\\\200@\007Z\201!\253\210\201@e\252`TR\373\177@M\025\214Jj\264\201@\346\256%\344\203=u@\211\322\336\340\213o}@\250W\3122D\305\200@w-!\037\364Z\202@&\344\203\236\r\007\203@\237\253\255\330\337\372\200@\007\360\026HP\310u@\331\353\335\037\357\370y@x\013$(~9|@\200\267@\202b\"~@\004\347\214(m\010\200@Mg\'\203#\341x@\027\317\240\241\177N\177@\'\024\"\340\220\254v@/n\243\001\374\201\202@\225e\210c\335\325\201@v\375\202\3350\010x@\365JY\2068\210\205@Q\332\033|\341Z\205@o*Ra\254\340\201@\016\2760\231\252\333\200@\274\"\370\337\312@x@\034|a2U\014\177@\277\016\2343\242kv@\020]P\337\262Yy@5\3578E\307\254\201@\263\357\212\340\377\033\205@\362$\351\232\311wx@H\247\256|\226\373y@g\270\001\237\037~z@\031\342X\027\267<\202@t\265\025\373KM\200@O@\023a\203\317\206@\354Q\270\036\205\006\204@c\177\331=\371Cx@\325\th\"\254\324\201@\204\236\315\252\317u{@\331\323\016\177MF\200@\324\232\346\035\'\t\202@\324+e\031\342\341\200@38J^\235\027\200@m\312\025\336\345\355\201@@\244\337\276\016\230y@\222\005L\340\226\250\200@\217St$\227\345\201@\324\202\027}\005S~@EL\211$\372uq@fffff\303\200@\3014\014\037\021\000x@\307\235\322\301\3727\177@\003\t\212\037c\302o@\020\344\240\204\231\231~@&S\005\243\022\036\203@\256\330_vO6r@\003`<\203\206\325}@@\023a\303\323\013\203@$\013\230\300\255}\204@dX\305\033\231\362\177@0L\246\nF=|@Z\365\271\332\n\227\201@\366\264\303_\223/\201@n4\200\267@c}@\365\271\332\212\375w\202@\230n\022\203\300\027w@\372\2269]\026I{@\365\333\327\201s\207\204@\373\306\327\236Yz\177@\232w\234\242\243\232\205@\002Hm\342d%\204@\217\302\365(\\\006|@\221\017z6\253[\205@\272I\014\002+!\201@g\320\320?\301\302|@\202sF\224v\030\202@\002Hm\342d\035\177@6A\324}\000\205{@\023\362A\317fGw@\035\311\345?df\203@0G\217\337[m~@EL\211$z9s@9\326\305m\264k\202@TR\'\240\ty\200@\203QI\235\0003\205@\324\232\346\035g\346\203@p_\007\316\031\222\203@Xs\200`\316^\200@\376\324x\351\246\343\204@y]\277`\267A\202@\205|\320\263Y\260\200@V\202\305\341\314t\200@\031\250\214\177\337\314\200@\204\330\231B\347\357w@\001M\204\r\317\200\202@B\354L\241s\371\201@\013\272\275\2441,x@\002Hm\342d\004~@\266g\226\004(\351w@\254\255\330_\266\226\210@\303d\252`\324m}@}W\004\377[\220z@p\323\237\375H7\205@\037\371\203\201\347R}@\312O\252}\272ky@\313(\226[Z\277|@\302\243\215#V\013w@J\200\232Z\266\323n@\215(\355\r\276\352\177@aTR\'\240O\203@\024\306\026\202\034\037}@\240\032/\335\244V\204@\255\206\304=\026\323\177@|fI\200\032\014\204@\341\356\254\335v\373y@b\241\3264\357:\204@\036\026jM\363N\200@d@\366zw\262|@\352\0044\021\266\246\202@\340\326\335<\325N~@;k\267]\350Yz@BC\377\004\227>s@^\272I\014\002\030v@aO;\3745\277{@\004!Y\300D\263\200@\266\204|\3203\264\201@\216\006\360\026H\027\202@\354/\273\'\017\373\201@]\026\023\233\217\332x@\223\306h\035U\330x@\2039z\374\336\303\177@\320\270p \244\r}@\252\202QI\035\362\210@\003\t\212\037c\320\204@\307):\222\3134{@\375\207\364\333W\246\177@X\262c#\020\004~@\232\231\231\231\231g\203@\337\340\013\223\251\037|@\276\023\263^\214\223y@\217\344\362\037\322\311\203@\356\360\327d\rRs@\r\253x#\363\235y@\362<\270;k\241\177@W[\261\277\254\354\204@\307\235\322\301\372O\177@\221\017z6\253\362|@?\214\020\036m\322w@\320\'\362$\351\335~@!\037\364lV\332\200@=\233U\237\253\221\200@q\254\213\333\350\250\201@s\334)\035,\326u@7\340\363\303\010=x@\311\345?\244\337\206|@\240\211\260\341\351\243x@6\310$#g\216\177@\250\313bb\363h\200@\355\r\2760\231\271}@\\\254\250\301\264\323\202@?\306\334\265\204\241\200@?\343\302\201\020\200}@\263\352s\265\025\226\204@\025\306\026\202\\S\201@\252ek}\221\370\203@\335$\006\201\025\321\200@\rT\306\277\317\024\200@1\010\254\034\332\366\200@\035 \230\243\307^{@\014\002+\207\226\223\201@\374\035\212\002\375\254\202@\211\322\336\340\213\323\202@\201\004\305\2171\255\200@?\306\334\265\204I\203@\242E\266\363\3752\202@\0329\013{\332\231\177@\210\364\333\327\201tu@\374\336\246?\373\032y@\206\311T\301\250?}@\310\007=\233\325~\200@\252\324\354\201\3262\177@1\231*\030\225K~@\347\214(\355\rtu@|a2U\260Y\204@\237Y\022\240\246d\202@]\026\023\233\217\272|@\226!\216u\361\322\200@\356\360\327d\215\207s@\322\000\336\002\t\363\202@\273\270\215\006\360\017\202@ {\275\373\343Qz@Ral!\310\266r@\223\306h\035\325\\\200@\263\007Z\201!\262\201@(\203\243\344\325\216z@d\307F \336\364}@\211A`\345P.\200@\343\245\233\304\240s\204@(\017\013\265\246T\202@\376\324x\351&\361\201@?W[\261?\355\202@F\316\302\236v\361p@\211\322\336\340\313k\203@\273\270\215\006\360\006\200@\376\317a\276\274\245{@\206Z\323\274\343\367\200@\031\342X\027\267b\177@\013\272\275\2441\362\177@\210\205Z\323\274\013\202@\205\353Q\270\036`\177@p\323\237\375Hd\206@\n\327\243p=\035\200@\305\376\262{r\272u@`\345\320\"[\343\201@\235\371\325\034 \022|@1\010\254\034Z\235\200@\331=yX\250@v@\360\026HP\374\200\200@0*\251\023\320\347{@\r\002+\207\026\305x@\355\r\2760\231v\204@\235hW!\345\031\177@8\241\020\001\3079\202@sK\253!\361\301{@3\304\261.n\236|@\324\262\265\276H\007~@m\312\025\336\345\342y@\374\030s\327\022Pv@5\3578E\307\334\202@\022\275\214by\032\203@\343\215\314#\177z{@Zd;\337\217\246\203@x\264q\304Z\304y@\233\346\035\247\350\213\201@\312\276+\202\177\367\200@_\007\316\031Q\311\201@M\363\216St\233w@\037\021S\"\t|\201@[\273\355Bs\315}@\3019#J\373Y\200@\256G\341z\024\004u@\344\017\006\236\373\216\201@\"\204G\033G0~@EGr\371\017\216\200@\343\307\230\273\226Iz@BC\377\004\227\245u@\216uq\033\215\304\200@w-!\037t[w@H\277}\0358>\202@\225\324\th\242)\207@\223\306h\035\325Y\203@\360\212\340\177+\246\202@\367u\340\234\021=\203@\247y\307):5|@)D\300!T\340z@\313\020\307\2728\004\204@\244p=\nWn\203@\006i\306\242\351}\177@\013\265\246yG\342\200@\365\271\332\212\375uy@\317\240\241\177\202\366y@z\245,C\234H\203@B>\350\331,,\207@\204\rO\257\224\032\203@\231G\376``\273|@\226\262\014q\254\022\200@\377\3470_\036,\201@\303\323+e\031Sv@0\206r\242\035\242\203@ c\356Z\302\212{@\210K\216;\245\374{@\372\355\353\300\271\300\205@\254\255\330_\366\322~@\200H\277}\035\351z@\0216<\275\322/\203@r\212\216\344\362\206\201@\034\353\3426\232\032\203@\316\210\322\336\340y\201@\241g\263\352s\310\200@\271\374\207\364\333,\200@\256\330_vO\275~@\253\225\t\277\024\246\205@-\225\267#\034\330z@&\314\264\375+\377|@\025\214J\352\004\326\202@\234\277\t\205\010\276~@\276+\202\377\255\"~@{\024\256G\341)\210@\365JY\2068\345\207@\340-\220\2408y\206@\334\334\230\2360\016t@;\001M\204\r\034\202@$(~\2149\334\201@{\367\307{U\247r@]\304wb\326\302x@\226&\245\240[\343\201@pB!\002\016\236{@\177\207\242@\037\302w@\010\254\034Z\344\037\200@\354Q\270\036\005\224\200@mQf\203L\330\177@x\234\242#\2711}@9\271\337\241\250\320\201@m\312\025\336\345\005\200@6<\275R\026\251\204@\n\334\272\233\2479~@\t\212\037cnV\205@8\241\020\001\307\241\204@\2505\315;N\231\201@\340\234\021\245\275\t\201@|\325\312\204_\224y@\200\267@\202\342\315|@\323Mb\020X\014z@\022\203\300\312\2411}@[B>\350\331\364\202@\231\273\226\220\017a\205@\"\204G\033G\300\177@I.\377!=\231\201@N\271\302\273\\I~@\314\356\311\303B\252\205@>\263$@M\305x@\237Y\022\240&\376r@\\ A\361c\245z@9b->\005\302y@\324+e\031\342\310}@\323\301\372?\207${@\312\246\\\341\335\233\201@\353s\265\025{B\202@\371\275M\177\366\355\200@\220\245\017]P^w@\360\371a\204\360\004|@j\336q\212\216\373\200@\307F ^\327\036\201@\217\344\362\037\222p\202@v\345\263<\017~{@\274\"\370\337\3121\202@=,\324\232\346\215\201@\215\264T\336\016d\201@H\247\256|\226\030\177@V+\023~\251\300{@a\216\036\277\267cv@\322o_\007\316[w@\336\223\207\205\332\253\205@\235\021\245\275\201\177\200@\023~\251\237\267%\202@_)\313\020\307\376z@\320\'\362$iZ~@\235\200&\302\306\276\201@&\314\264\375+1\177@\240\032/\335$\020}@sh\221\355|f\200@H\341z\024.\216\202@\361c\314]\013(\205@\257%\344\203\036\001x@\211\322\336\340\2131\205@\325\th\"\254L\203@[\323\274\343\224\300u@\210\205Z\323\274\030\177@\020\006\236{\017\375z@\357\311\303B-v}@#\363\310\037\014\224}@j\274t\223\030\216\204@\277}\0358gy~@\214\3637\241\020Pv@\036\212\002}\"\205{@\246\362v\204\323\251{@->\005\300\370\356{@\342\036K\037\372\221\204@\365JY\2068t\200@P\031\377>\343\353z@3\247\313b\342\\\177@v\340\234\021\245z~@\020\356\316\332\355Px@\017\013\265\246y\231\177@\002\274\005\022\024fy@\300s\357\341\222G}@\260\003\347\214\250H\204@?\313\363\340\356\007\202@F%u\002\232\211y@\027\267\321\000\236\312\201@\212\260\341\351\025\334\200@\273\270\215\006\360\334y@Y\243\036\242\321`\177@ \322o_\007\204t@\316\252\317\325V\333\200@_\014\345D\273X}@\271\374\207\364[\322\200@\334c\351C\227M|@/\206r\242]\312{@\026\2073\277\232\240\177@+\030\225\324\211\324\200@[\323\274\343\024Dy@pB!\002\016W{@\320\270p \244\271\201@$\227\377\220\376\036\200@`\345\320\"\333\323\200@\030\225\324\th\276|@\312\276+\202\177\353v@\220,`\00270\205@D\213l\347\373\246u@c\020X9\264\255\200@\0358gDi\023|@m\342\344~\207\213\203@6\260U\202E\344q@\216\314#\177\360r\201@\013F%u\002;\200@\371\245~\336\324\200\200@I.\377!\375P\206@?\306\334\265\204Q\204@\204\231\266\177eAz@;\001M\204\215\240~@,\324\232\346\235`\201@V\202\305\341L%v@1\010\254\034\332\036\202@^F\261\334\322Ez@@5^\272I\002\205@\212\352\255\201\255|s@sK\253!\361\312~@N\321\221\\\376\276\206@\241\241\177\202Kn\201@b\241\3264\357\225|@\242\271N#\255\270x@\372~j\274t\307}@o\372\263\037)P|@3\371f\233\033\217w@\320D\330\360t\031\200@\230\206\341#b\364x@82\217\374\301ey@#\333\371~*\242\201@\260\003\347\214(\233\201@#bJ$\321-|@f\367\344a!4\205@L7\211A\340\354\200@\237\310\223\244\353|~@\271\001\237\037F\264\177@\237\260\304\003J\ry@\222\005L\340\326!x@)\\\217\302\265|\204@j\336q\212\016\245\202@\314\227\027`\037\177t@\016\025\343\374M\341w@\334K\032\243\365\273z@\214\271k\ty\215\201@\354Q\270\036E\003\203@\264Y\365\271\332\206{@@\023a\303S\\\202@\352x\314@\345(\203@\345\320\"\333\371E\202@;\031\034%\257Au@\264\310v\276\037c\201@\376\317a\276<\227{@\352x\314@\345\332\177@$\013\230\300-\376\205@9\264\310v>\375\203@k\232w\234\"~u@\272\332\212\375\245\340\204@\\\254\250\3014R\200@;S\350\274F\202}@9EGr\371\266u@\217\344\362\037R\013\205@z\307):\022\316\201@Z|\n\200\361n|@\t\212\037c\356wx@\032Q\332\033|\246\205@*\251\023\320\3040\201@\311\216\215@\274\013{@\256G\341z\024\017\200@\323\274\343\024\035F\202@\255\372\\m\305\376\200@\242\013\352[\346\201x@\020\356\316\332\355\276~@\357\247\306K7v\200@\355\236<,\324\321x@\346?\244\337\376p\200@\003\t\212\037c\236|@\316p\003>\377`\206@\321\221\\\376\303\242~@\027\267\321\000^\241\177@V\023D\335\2077}@{\367\307{U:w@\340\276\016\2343w\201@\177j\274t\023\237\205@\277}\0358\347\204\201@\275R\226!\016}v@\331\323\016\177M\006\200@N\321\221\\~\032\201@9\326\305m4\243\200@\035Zd;\337ct@\306\334\265\204|\275v@#J{\203\257\010z@\3019#J{Hy@\376\324x\351&-\201@9\271\337\241\250m\200@\200H\277}\335\224\206@l\t\371\240\247\231\202@h\"lxz\351\203@\351H.\377!Zw@\311v\276\237\2322\201@\355\231%\001jB{@\371\245~\336\324q}@\341\006|~\230\376\177@\337\340\013\223\251\301{@{\017\227\034\367y}@?\214\020\036\255\276\204@\347\035\247\350\310\033\205@\267b\177\331\275\300\202@\235\021\245\275A\304\201@\327\022\362A\0170\203@\260\346\000\301\234@y@1\010\254\034\332\014\177@\203\300\312\241\305\322t@\305\224H\242\027U\201@=\233U\237+\037x@\352x\314@\345\263|@s\334)\035\254\347|@D\365\326\300V\rz@\234\277\t\205\210Jw@j\030>\"f\313\201@\0329\013{\332i~@\205|\320\263Y\352\201@\371\024\000\343\0318~@-\255\206\304\275\337u@O@\023a\203@\200@D\335\007 \265\n\205@\033\r\340-\220\n\200@\274t\223\030\004\035\201@J\230i\373W\221}@\024?\306\3345\222|@{\024\256G\341\237{@z6\253>\027\n\202@\304|y\0016\n\200@\275R\226!N\213\203@=\n\327\243\360\377\205@\034\010\311\002&\361\177@M\204\rO\257m\203@\251\023\320D\330`~@\302\213\276\202\264\177|@\215\227n\022\203\314w@\243#\271\374\207\250{@\275R\226!\016\236\201@a\246\355_Y\343\204@\032Q\332\033|Hs@\020u\037\200TK\204@\236^)\313\020\033y@\261\277\354\236\274>\205@C\255i\336qR\200@2w-!\037\247v@\345~\207\242\300g\204@D\213l\347{5\200@\033\236^)Kq\206@f\210c]\\\r{@\260\376\317a>\315\201@\252\324\354\201\326\355u@\315X4\235\235\263}@\343\307\230\273\226\276\203@|a2U\260!\203@\026\373\313\356\311O\177@\320\017#\204G\006z@\366(\\\217B\210\205@\331\353\335\037\357\021\200@a2U0\252\210\201@\201\225C\213l\007\201@\260rh\221m\323\200@\360\242\257 M\341\200@X9\264\310v\373z@g\325\347j+\301\200@\253\317\325V\354s{@\371\240g\263\352\305x@\377!\375\366u\032w@\223\306h\035U\246q@R\'\240\211\260\270\200@\241\3701\346\256\216x@\002\274\005\022\024\274z@\212\002}\"\317\277y@\245N@\023a\256x@\252\324\354\201\326ax@\305\224H\242\227\332~@d;\337O\215a\177@\324\262\265\276H\345\177@\260\376\317a\276\326\177@\360\242\257 M\236w@jH\334ci\243q@\366#EdX\357z@?W[\261?9\203@;S\350\274\306\272{@zNz\337\370=}@\031x\356=\\J\201@\341\356\254\335vQ\201@\372~j\274t\022\177@\377!\375\366u\273\200@\354\3009#\312c\202@V\237\253\255\330\220~@\246\233\304 0>\202@\234\247:\344f\014u@t\265\025\373\313\306\201@\222\313\177H\277\026\201@\240\211\260\341\351\357\204@q\254\213\333\350)\201@\216uq\033\215\360\201@\274\"\370\337J\251x@\271\031n\300gf\203@\342u\375\202]\212\177@Y\027\267\321\000s{@\274\226\220\017z\326|@\007\3230|\304\316y@\351&1\010\254\253~@\277\237\032/\335\303\204@\033\r\340-\020!\200@\333\371~j<\366\203@\031\220\275\336}\026\211@\346?\244\337\376\354\200@q\033\r\340\255\226~@\033\236^)\313\177\200@\037\021S\"\211A\202@|~\030!<\252~@%z\031\305\362\236w@\237<,\324\232p}@\256\330_v\317F\200@Dn\206\033pk}@\327*\301\342p\325\177@q=\n\327#\252\203@=\233U\237\253\364\200@yX\2505\315)\203@\007Z\201!+1\177@l`\253\004\213\037\177@\016\333\026e\266\tu@\017\013\265\246yp\203@\002+\207\026\331\271\203@<\302i\301\013\257\207@n\243\001\274\205%w@4\200\267@\002[\205@-C\034\353bV\204@\317\367S\343%r~@z6\253>\027t\203@\304%\307\235\3229\203@vq\033\r\340\356{@\242\321\035\304N\211x@\311\345?\244\337[w@\304=\226>t\202\201@\313\241E\266\363\037\201@Sy;\302i`\200@\316\210\322\336\340\215z@H\341z\024\256\364\200@\2505\315;\316e\205@xz\245,C\364w@\356ZB>\250\016\203@B\225\232=\220\315\200@\254\255\330_6\232\200@\234P\210\200\303\363~@;\001M\204\rG\202@]\304wb\326\250\177@x\234\242#9\257\200@\235\357\247\306K$\200@\214\333h\000\257\016\200@9\264\310v\276\376x@\256\266b\177\231\245\201@\007Z\201!+Ev@\223\3367\2766Z\200@\261\277\354\236|\217\201@\373\313\356\311C\225\202@K\216;\245\203\303t@:#J{\003\303z@\337\340\013\223)o\200@\327\273?\336\253\205}@\366#EdXgx@7\032\300[\240\332\203@\031\250\214\177_b\206@\335\265\204|P\033z@\263\007Z\201!\366\177@\336\223\207\205Z\261\201@f\337\025\301\377}}@ c\356ZB\303{@\257%\344\203\236\232|@\214J\352\0044\366\177@\271\210\357\304\254^}@\231*\030\225\324\231\204@\027\317\240\241\177Z{@|fI\200\032\353\200@\347oB!\202\206\201@+\366\227\335S\235\201@\212\032L\303p\307|@X\2505\315;\357\202@sK\253!q\350{@e\252`TR\310w@\340\234\021\245\275|y@\t\371\240g3E\203@q=\n\327\243\341{@x\356=\\\362\232|@\217\302\365(\\\202|@\020]P\3372+\200@\223\306h\035U]|@\244k&\337li\202@\263\200\t\334\272\362x@8\370\302d\252\262{@\354Q\270\036\205\355}@j\274t\223\230\000\202@\252\354\273\"x\366}@\376\317a\276<&\201@\244SW>\313\321\200@/n\243\001<\364\203@\216\006\360\026\310-\201@\232\231\231\231\231/\205@\351H.\377a\252\201@q\254\213\333hr\201@\270\222\035\033\201\305|@\3333K\002\224\204\204@\211\322\336\340\213\010v@\327\022\362AO\342{@n4\200\267\300\212\201@\366#Ed\330g\177@\267\321\000\336\002\361\200@]\376C\372\355\364{@.V\324`\0322x@\031\220\275\336}9\202@\366\227\335\223\207Y\201@\026od\036y)\203@\274\"\370\337\312\314\177@V\016-\262\235C\202@B\354L\241\363\'\200@\2657\370\302d2\201@C\255i\336qDz@\222\313\177H\277\007|@G\217\337\333thq@i\251\274\035\341,s@8\370\302d*c\200@\362\322Mb\220\247y@\317f\325\347\352\000\202@\326\312\204_\352U{@W[\261\277l\007\200@h\221\355|?\372\201@\3323K\002\324\304{@\356\353\3009#\320\177@\350\331\254\372\334p\203@\'\275o|\355\324z@W[\261\277lo\200@\215\234\205=m%x@[\261\277\354\236\313}@\020z6\253>b\200@\033/\335$\206\n\203@\252\202QI\035\353\202@\243\013\352[\346\320z@\267b\177\331=\031\201@\320\270p \244hy@2U0*\251\371\203@\364lV}.\334p@-\262\235\357\247\363\201@\210{,}\350\323|@=\233U\237+\270~@\311\037\014<\367Gw@\230L\025\214Js}@\205\353Q\270\036i~@\273\263v\333\005\217~@\317f\325\347\352\376\200@:\351}\343k\221w@\n\364\211<I\263z@;\001M\204\215\354|@&\344\203\236M\001\203@\300\354\236<\254\261\204@\362\322MbP\364\200@3\304\261.n}\201@\355\r\2760\031\241\200@\335$\006\201\325\203\203@\305\376\262{\362\030\202@w-!\037\264\212\200@\242E\266\363}\317\205@\345f\270\001\037\235\201@\241g\263\352s\252\201@s\364\370\275M\253\177@N\321\221\\~Q\201@2w-!\237){@\365\333\327\201\263\344\201@r\212\216\344\362nu@\354Q\270\036\205\231y@x\234\242#9\002\206@t\223\030\004V0|@m9\227\342\252t\200@x\006\r\375\023\304\177@\312\216\215@\374\250\204@/V\324`\032\027~@\030\317\240\241\177\221y@H\341z\024\256\371u@\"\032\335A\354\250\200@i\251\274\035\341\033z@\335$\006\201\225\262\200@\003x\013$\250\310y@c\356ZB>\344\201@\352x\314@e\304|@\256\266b\177Yh|@\216\314#\177\360\264\201@\216;\245\203\3650x@,\324\232\346\235(\205@\363\216St$\334\201@\373\256\010\3767\316|@\340\234\021\245\275\000y@`\345\320\"[Xx@u\223\030\004\326\303\200@sh\221\355|\357\200@\305\346\343\332P\315u@\275R\226!\316\300\200@@\023a\303S\323\200@?5^\272I\262\202@b->\005\300\211v@3\304\261.n%\200@\270\252\354\273\242\266\177@\254\305\247\000\030l{@\201&\302\206\247:\202@^.\342;1Vz@\025\214J\352\204\300\200@\032Q\332\033\374\010\201@\317f\325\347j0\200@j\336q\212\216~y@%u\002\232\210\313\201@*\306\371\233\320_u@\325[\003[\245\332s@H\277}\0358ux@\336<\325!\367)\203@_\272I\014\002e~@\016-\262\235/t\200@J{\203/\314\245\200@,\207\026\331\316\013|@)\355\r\276\260\236}@M\363\216S\364%\202@\224M\271\302\273mu@\311\345?\244_\025z@\217\344\362\037\322\207\207@\371\240g\263j\315\201@\310\007=\233\325B\201@<\3328b\255\'\203@X\342\001eStv@\200H\277}\235>w@\022\024?\306\334\354\203@\314(\226[ZDy@\341\006|~\030\343|@!\260rh\021\237\201@t\315\344\233mF}@\267\2711=a\010\177@\336q\212\216\344\337\202@\t\033\236^i>\204@\371f\233\033\323\223x@\373\306\327\236Yjz@\036\242\321\035D\277\177@Z\365\271\332\nQ\200@O\257\224e\210jz@sh\221\355|gw@\336q\212\216\344\n\201@Gw\020;\323\006~@\317\367S\343\245U\200@\305\2171w\255\203\200@s\334)\035,\007|@\031\220\275\336}\022y@\n\364\211<I\025z@\320\270p \244q~@k\232w\234\"\203\200@(D\300!T\372w@\347Ws\200`\242x@\365EB[N\320{@\303d\252`T\027\177@\302\206\247WJ\221\203@\211)\221D/\234\177@\307\272\270\215\006\375\202@\026\331\316\367S\323\200@q\003>?\314\233\201@\331\003\255\300\220\365y@H\341z\024\256\020\177@\rq\254\213\333\200\201@M\363\216St}z@\257\r\025\343\374T{@S\"\211^\306\252~@x\013$(~\323\203@\204*5{ \037y@\210c]\334\306t\204@a2U0\252\214\200@k+\366\227\335+\203@hy\036\334\235\331y@S\226!\216u\274\202@\212\352\255\201\355\314\203@\004\347\214(\355\207z@\014\223\251\202Q\250|@\221\355|?\265\004\200@\270\222\035\033\201{}@9b->\205r\202@_\014\345D\273\225\177@m\347\373\251\361\327t@9b->\005\014t@\374\336\246?\2734\205@}\'f\275\030]~@\002Hm\342\344\364z@33333\270\201@d\257w\177\274z\200@\0054\0216\2741\202@9\326\305m\264\217\205@|fI\200\232\270\200@\376\016E\201\376=\205@\020]P\33727{@\220\024\221a\025j\204@Dn\206\033\360Hs@>\350\331\254\372\342\200@HP\374\030\363\256\200@\020u\037\200T\202\200@0\266\020\344 1y@\256\236\223\336we\200@\346?\244\337>%}@\243\222:\001M\305\202@M\363\216St\033{@\020z6\253>\367~@\224\366\006_\030\025y@\0329\013{\332#~@\274\n)?\251\"\202@f\367\344a!\263\204@\007B\262\200\2118y@3\277\232\003\204\353}@\377&\024\"\340\236\200@_)\313\020\307\215}@\202\342\307\230\273@n@\355\236<,\324\360\201@\031s\327\022r[\203@\300\354\236<,!\201@\316\252\317\325VU\202@\203\250\373\000\244\304|@M\363\216St\301y@C\255i\336\261\016\200@\363\032\273Du\307u@\260rh\221\355\355}@\376\267\222\035\233\311\204@\235\200&\302\006\374\177@\275\313E|\'U~@\320\263Y\365\271\312\201@\010\2613\205N\274}@[\323\274\343\024\320}@\223\256\231|\263Dy@2w-!\337Q\205@q\033\r\340-\326\200@\313\020\307\2728\023x@\233\3117\333\\\314|@\223t\315\344\233\'x@Hm\342\344~V|@\032\300[ \301\343x@g\320\320?\301i|@\241E\266\363\375\330|@\235\200&\302\006\253|@\270\351\317~\244Cx@\212\260\341\351\225\325\202@\037\371\203\201\347\n\200@\215\227n\022\203%\202@\315@e\374\373\366}@\273\263v\333\005\204x@\316\210\322\336`\016\203@\"\303*\336\010\322\202@0\236AC\377$t@f\210c]\334mu@L\246\nF%\362\204@\276\023\263^\214\243\177@\376\267\222\035\233o\200@*\035\254\377\363\307x@\007\3230|D\342~@<\203\206\376I\255\201@\306Ue\337\025Rz@\320I\357\033\337\272w@g\325\347j+\265\202@\326\312\204_\352\355\177@\365\333\327\2013\205\201@f\210c]\\\302|@\205B\004\034Baw@\216\314#\177p7\205@?\214\020\036\255\206\203@z\275\373\343\275\206~@\332\033|a\262\232\200@q\033\r\340\255\027z@?\313\363\340nc\201@\325\347j+\366\363\177@0\236AC\377\272{@\326\342S\000\014\262}@\303d\252`T\250y@\304 \260rh\272\202@\337T\244\302\330\345~@\274\005\022\024?\305}@\227\377\220~{\251{@q\254\213\333\350e\200@\256\330_vOF\201@1\010\254\034Z\024\202@\241\241\177\202\213\353q@Kvl\004\342\204\177@\206\311T\301(X|@^F\261\334R9{@\002\232\010\033\236\201{@\344\203\236\315\252v\206@\314\177H\277}\264\200@,\324\232\346\035\370w@\005\243\222:\201\345\202@\233\346\035\247\350,\201@\365\333\327\201\263\246\204@\020]P\337\262\014z@+\030\225\324\t,\177@\357\341\222\343N\241}@)\005\335^\322\200|@\336\223\207\205Z\033\200@\322\251+\237\345.u@z6\253>\227\324\200@\211\322\336\340\213w|@\200\267@\202\342\327\203@]\026\023\233\217\311u@I.\377!=P\200@\217St$\027|w@\353s\265\025{\303\202@v\340\234\021\245\001z@]\334F\003\370\203\202@\327\243p=\212\372\200@F%u\002\032\337x@\307\205\003!Y\031v@\204\330\231B\347my@i\000o\201\304\323\200@J\014\002+\207h\202@x\234\242#\271\337\202@D\335\007 5\242\177@A`\345\320\"\273\204@\204\231\266\177\345\231v@:#J{\203C~@\020\006\236{\017\215\177@\230\206\341#b\342|@\263\230\330|\\\314p@\377!\375\366\365R\204@\364T\207\334\014}z@k+\366\227\3359\203@\023\362A\317f\274|@m\342\344~\207)\200@\210c]\334F\031t@\007\360\026HP\252\202@\037\364lV}<v@\345\362\037\322o_\205@\336q\212\216d9\202@\373\306\327\236\331\000\203@\307\235\322\301z\205\204@<\203\206\376\311\216\205@q\254\213\333\350mx@m\342\344~\007\256\202@\013F%u\202\323\203@\3014\014\037\221({@\334\0147\340\363\034w@->\005\300xX}@Z\365\271\332\212\352x@Y\213O\0010\037z@:\222\313\177H\335w@\360\0211%\222q}@\232\217kC\305\345{@Y\2068\326E\270\205@\004\347\214(\355\033\200@z\036\334\235\265=~@ c\356ZB\355z@\026\2073\277\032*|@\327\022\362A\217\257\204@K\310\007=\233\253|@\365\333\327\201s |@\367u\340\234\021\200z@\003\t\212\037\243b\202@\352\220\233\341\206\241\205@\255\365EB[2\177@q=\n\327\243\330\202@\3711\346\256%,\204@\014\002+\207\026\256\202@\234\304 \260r\022\200@\265q\304Z|\376q@(\203\243\344\325\260p@\305\376\262{\362\331\201@{\203/L&I\203@Y\243\036\242Q\013\202@}?5^z\252\200@\2235\352!\2328z@j\274t\223\030\002\201@<\3328b-r\203@\r\345D\273\n\036x@@\023a\303S\246y@\247\\\341].T{@\225e\210c\3355\202@=\n\327\243\360\277\203@\325\th\"l|s@\2201w-!Ly@\324\202\027}\005H}@\326\312\204_\3521|@Ws\200`\2162~@\2201w-!\201\202@S\n\272\275$\222\177@\t\033\236^\251\341\200@\241\3264\357\270\321\200@o\022\203\300\212\270\200@\376\016E\201>\247x@m9\227\342\252\327~@38J^\235\234\204@\033\r\340-\220\022x@p_\007\316\231\020\203@\373:p\316\010D\202@\265\211\223\373\235\266{@\307F ^W\343\201@\326V\354/\273\236y@\\U\366]\321\024\204@\351H.\377\341t\200@K\352\0044\021\244\177@\035 \230\243\307\300x@\227\220\017z6Vy@\316\210\322\336\340K\202@\315;N\321\221wx@0\236AC\177D}@\334\327\201sF\355z@\246\nF%\365 \203@(D\300!Ttx@\304|y\001\266\251\202@\027\267\321\000\3362}@J\014\002+\207kw@\"\375\366u`\361\201@\345\362\037\322o\033\202@q\254\213\333h\025\204@2w-!\237\t\200@\\\254\250\301\264\315\203@\3269\006d\257\233|@v\340\234\021\245*\201@\316\252\317\325V$\204@\360\242\257 \315.\202@0\330\r\333\026\352|@#J{\203/\234s@\264\310v\276\037`\200@\311\345?\244\337\337{@\343\215\314#\177\003|@\270\257\003\347\014-\200@\277}\0358\347\301\204@\307\205\003!\231j\211@\033\201x]?\325u@S\"\211^\306\347~@q\003>?L]\201@\177o\323\237}\225s@\303d\252`T~w@o\022\203\300\312\357\203@\312O\252}:\272\201@\217St$\227<\204@\334\327\201sF\312w@\031\377>\343B\342~@\030&S\005\243\201\200@\233\3117\333\\Z~@\247y\307):\332y@\307\235\322\301z\301\203@\342].\342\273\177|@\240\211\260\341)\277\201@\200\267@\202b\372x@}?5^:f\177@\270@\202\342\307C\203@\001\336\002\t\212py@\026\2073\277\032\331\177@\232w\234\242#a\203@9\326\305m4\221z@scz\302\222\013\202@\337\340\013\223\251T\205@\0358gDi\215\205@\356ZB>h\334\201@$#gaO\033\203@\312\246\\\341]\236\201@\365\271\332\212\375\232\202@\356ZB>\350V\202@\220\240\3701fQ\203@~\0358g\304\r\203@j\274t\223\030]\200@\351H.\377\241x\200@\014\253x#\363\310\177@3\247\313bb\340{@-&6\037WS\211@\337\340\013\223\251\301z@\336\345\"\276\223\263\204@\247\\\341].\212\201@EL\211$z4}@\274\221y\344\017\276y@\312T\301\250\244y\203@\271\210\357\304\254\360{@O\036\026j\315\245\202@\352\220\233\341\206\027\177@\020\006\236{\017Wy@\037\371\203\201g\343x@\331\323\016\177\315Hz@\337\340\013\223\251\265}@\"\204G\033G\031{@\312\246\\\341][\201@\220\275\336\375q|\202@\211\322\336\340\013cv@\277\016\2343\242\301\204@\023a\303\323+N~@\377&\024\"`\262y@\371\245~\336Tf\203@$(~\2149(\200@\332\254\372\\m\233\206@\007\316\031QZ\235\200@m9\227\342\252\365w@)\313\020\307\272\374z@\376\016E\201\376v\202@\013\265\246yGL\200@\245\275\301\027&\221\200@\272\332\212\375%\227\204@+\207\026\331\316\273\200@\372\355\353\300y\300\201@o*Ra\254\330\203@3P\031\377>\353\200@\354\3009#\312v\201@a\276\274\000\373\212\201@$\271\374\207\364\330\202@\027\331\316\367S\356r@\t\304\353\372\005\\x@z\036\334\235\265\352{@\331\353\335\037oq~@\033\201x]\277\021\200@\252}:\036\263 \202@\316\210\322\336`\034{@\346\306\364\204%`~@\237\310\223\244\353\315}@n\372\263\037i\236\200@H\341z\024\256\321|@\317\367S\343\245\201}@\241\241\177\202\213\263v@%\006\201\225\3039\200@\212\002}\"\317$v@`^\200}t\373z@v\025R~\022\371\202@\365JY\2068\"p@\377!\375\366u=\206@\356ZB>\250\317\200@\320I\357\033\337Cx@\233\3117\333\\\362~@\001\331\353\335\037(\202@\215\264T\336\016\321\201@\376\267\222\035\033\341{@+\366\227\335\323\376\201@EGr\371\217\257\203@0G\217\337\333\345\205@\315;N\321\221\001\204@\201\225C\213\354\257\200@Tt$\227\177f\201@\266\020\344\240\204A\204@\310\007=\233\325\323\201@\331Z_$4\300\177@\013\265\246y\307\236{@\252\361\322M\342\210\202@\331=yX\250\206|@q\003>?L\336\200@\226&\245\240[\014{@\021\307\272\270\r6\202@\037\371\203\201\347q|@\020\006\236{\017\315z@\345a\241\3264(}@f\210c]\\$\202@\316\210\322\336\240\020\200@Y\213O\0010fr@\355\201V`\310\033\177@\3539\351}#\256\204@\344\024\035\311\345\023\201@}?5^:Iy@\276\301\027&S\311\200@\355\r\2760\231\245|@\036\212\002}\2420|@C\004\034B\225\322n@\003x\013$(\214~@8\241\020\001\307,\200@dX\305\033\031mw@\025\035\311\345?\312z@\004!Y\300Dw\203@\370N\314z\261wz@\004\347\214(m,\203@Y\2068\326\305\013|@\002\274\005\022\024\370\205@G\003x\013$#\201@\324\267\314\351\262\342n@\022\024?\306\334\360~@\325x\351&\261\217\204@B\324}\000R\007\200@V\237\253\255\330\027\203@\302\213\276\2024\232|@\346?\244\337\2766{@\312\246\\\341\335>\202@I\235\200&\302\377|@\031\250\214\177\2370y@\345\362\037\322\357I\205@\270@\202\342\207\224\201@U0*\251\023\213z@\346?\244\337\276U\204@;p\316\210\322\255z@\\\224\331 \023\321\200@\375\366u\340\\\t\210@\021X9\264\310X\202@\250\306K7\211\222\201@\212\260\341\351\225\216y@[|\n\200\361\nw@\344\017\006\236{?}@\230L\025\214\312B\202@\005Q\367\001\310\264\177@\236\352\220\233akz@\023~\251\2377\027\177@\223\035\033\201x\204}@\nK<\240\354\321|@\013$(~L\273\200@|fI\200\232m\201@pZ\360\242/\002}@\221\355|?u\273\200@\212\032L\303pVy@\360\341\222\343N\323u@\2235\352!\032\335\201@\363\223j\237\216\254\200@\245\302\330B\220\212t@\001\030\317\240a]\207@\376\016E\201~\023\201@\253\225\t\277\224\017\204@\300[ A1\253\204@\263\260\247\035>\224\201@\256G\341z\024\321\200@\254\255\330_\366\275\203@u\223\030\004\326<\203@\357\311\303B\255\002\201@\026\2073\277\032\037{@C\034\353\34269\200@\r\375\023\\\254\254z@\177\373:p\316\201z@\376\267\222\035\033hz@\340\246?\373\221\375~@>\\r\334\251\355z@\032\300[ A\243\200@D\213l\347\373\200}@\226\317\362<\270\"p@\336<\325!\367=\200@O@\023aC\307\200@\350j+\366\227\244\202@\"lxz%w\205@\341\006|~\030\025\202@\215\234\205=\355Q|@,\324\232\346\235\332\204@\263\007Z\201\241\226~@\336q\212\216\344c\202@\r\375\023\\\254\241~@\214\333h\000\357\005\206@\004!Y\300\004\367w@T:X\377\347\201x@)\\\217\302ud\204@\252\324\354\201\3261\205@A`\345\320\"?\202@\241\3264\357\270g\202@f\367\344a!3\177@\336\345\"\276\023\t\201@q\254\213\333\350i\202@vT5AT\224\204@H\277}\035\370K\205@;\351}\343k\353\177@\t\212\037c\356\221\203@\362A\317f\325\306\201@\271p $\013\204w@\310^\357\376\2707\201@z6\253>\227R\203@;p\316\210\322\324\200@o*Ra,\373\210@\376\324x\351&Vy@L\340\326\335<Gt@Qk\232w\034*\202@\237\310\223\244kAy@\204\201\347\336\303U~@\257%\344\203\236\023~@h\"lx\372C\202@Dio\360\205A\207@0\266\020\344 \006|@\313\241E\266s\263\204@m!\310A\311\013\211@\201x]\277\340\023\203@\211)\221D/L~@;\337O\215\227`{@6qr\277\203m\203@u\002\232\010\233/\200@\014\002+\207\026\302z@D\335\007 5\265x@|~\030!\274\306\201@\215\013\007B2\221\202@z\245,C\034J\200@\334\327\201sFMy@\363\216St\244\327\200@\2235\352!\232\036|@\230\206\341#bd~@\033/\335$\006Pp@\252\324\354\201VYy@%u\002\232\010\025\201@\242E\266\363\375\263\201@\373\306\327\236Y1}@\3436\032\300\333\247\201@ c\356ZB=y@vO\036\026j\257\206@^F\261\334\322\363}@\221\325\255\236\223 y@C\034\353\342\266\'|@s\327\022\362\301W\202@\031s\327\022\362\275\204@\177\331=yX(\204@\035\311\345?\3443\200@\021\307\272\270\rq\202@u<f\240r\334\200@\302\206\247WJ\332\206@\210\364\333\327\201\375p@\3127\333\334\230\240\177@\375\366u\340\234u~@\347\306\364\204%\315v@\354Q\270\036\005\224x@\252\361\322M\342\026\202@\252ek}\221\304\177@S\226!\216u\034z@\331\323\016\177M\204r@d\257w\177<H\206@\376e\367\344\341\230\177@\003x\013$\250\032\201@p\316\210\322\336\234\204@:\222\313\177\310>z@\263{\362\260Pnz@v\340\234\021\245\302\201@\017\013\265\246y\036|@\251\023\320D\330\265\202@\366\264\303_\223ru@\335$\006\201\025(\203@Zd;\337O\306\201@\301s\357\341\322+\203@\324+e\031b\233\201@\255\372\\mE\032\200@\320\270p $\305\204@\370S\343\245\233\300|@m9\227\342*Sz@\316\210\322\336\340\212\207@\376\016E\201\376\273\201@?\306\334\265\2044z@\200\267@\202ba\200@\006\201\225C\213f\201@\331\323\016\177MZy@\260w\177\274W`\177@q\254\213\333\350\177\202@\"\375\366u\340zx@\347\306\364\204%\253p@\225e\210c\335Y\202@\335\0147\340\363\211|@67\246\',3m@\307\272\270\215\206 \206@K\352\0044\021\366}@t\265\025\373\313\370\201@_)\313\020\307\316\177@\251\244N@S6\200@\376\324x\351&\274\200@\036\247\350H\256F\204@\013F%u\002\204u@A\361c\314\335W\206@\355\201V`Hj\205@h\221\355|\277\364\202@\361\364JY\206\241\202@\320\320?\301EC\202@\010\254\034Z\344w\202@\355\231%\001\352J\203@\251\244N@S[\200@\346\256%\344\003a\204@\036\242\321\035\304_\203@9b->\005:{@\363\375\324x\351*\177@<\302i\301\213o\202@\242\321\035\304N\346v@\321\221\\\376\303\265\200@\336\375\361^5+\205@\360\242\257 M\376y@\007\353\377\034fQ|@C\255i\336qn\200@\365\333\327\201sU}@\271p $\213\376y@\211\322\336\340\013\352t@\234\242#\271|\361\201@\231\273\226\220\017sz@\n\327\243p=!w@\306m4\200w~\200@?\313\363\340n\331{@\256_\260\033\266?}@\227\377\220~\373&\203@\3711\346\256%ct@\2348\271\337\241\237\200@\027\267\321\000\336\302\202@\031\250\214\177\337E\205@\370\3740B8\361\203@\214J\352\0044\340w@\203/L\246\212$\203@\356\353\3009#Uz@\"\375\366u\340\006|@\024?\306\3345C\201@_)\313\020G\255\203@\275\343\024\035\311Y\205@\236\322\301\372?d\177@\363\223j\237\016\306\203@)\355\r\276p\343\200@\037\021S\"\t\327\205@\025\306\026\202\334w\200@\243#\271\374\207\t\201@\354Q\270\036\005b|@\256\236\223\336w\212\201@:\222\313\177\310,q@2w-!\037\301|@\323Mb\020XI\177@\"\216uq\033?}@[\261\277\354\236\362y@q\033\r\340m\351\203@\351H.\377\241\271\204@:\222\313\177\310Z\177@\"lxz\245d{@\274\n)?)\364\201@\372f\233\033\323iz@\274\005\022\024?(\204@\216\006\360\026\310$\201@\014\253x#\3631}@f\367\344a!\241\203@\034\353\3426\032k\202@2\217\374\301\300*\177@s\327\022\362AT~@_\315\001\2029\013x@\306m4\200\267\274\205@lxz\245,&\200@\252\202QI\235}x@\004!Y\300\304\202\205@\332\033|a\262\261y@\334c\351C\227\221|@\004V\016-2\323\201@\375\324x\351&\257\204@X\3122\3041Z\205@\210\364\333\327\201\215\203@\361\364JY\2069z@D\372\355\353\300\004\204@\264Y\365\271\332\203x@q\033\r\340\355\262\202@\347\035\247\350\310\030\201@\256\266b\177\031e\201@r\212\216\344\362Ep@\001\331\353\335\237I\200@\262.n\243\001\265w@\232w\234\242#,\202@\210c]\334\306\031\200@C\255i\336q\200\204@\243\001\274\005\022\254\201@sK\253!\361\270~@\200\267@\202\"p\201@\337\340\013\223\2514~@\252\324\354\201V\240r@|fI\200\232p{@\354Q\270\036\005\216\177@\235\021\245\275\201\212\203@d\257w\177<|w@_\2652\341\027$u@\\ A\361c\020{@\361\364JY\006@\202@>\\r\334\251\207|@\344\245\233\304 \324}@\363\216St$\330\203@\263\260\247\035>=\202@\352&1\010\254\326\202@(\017\013\265\246\317\202@\237\260\304\003J\355y@\n\334\272\233\247\203z@\306m4\200\267\265\177@O@\023a\203\r\202@Q\332\033|\341\266|@\002\232\010\033\036\022\200@\247\350H.\377P\200@\003\t\212\037\343i{@\336\223\207\205Z\211\202@KY\2068Vm\200@\007\353\377\034f\326}@\263\357\212\340\177U}@\212\260\341\351\025\313\202@\001\336\002\t\n\325\202@\026\2073\277\032\307{@V\202\305\341\314\027\201@fp\224\274:\305~@Q\332\033|a\205\200@\"\032\335Al\374\200@X\3122\304\261\224\177@9EGr\371n\203@\'\024\"\340\220\002\206@\'\302\206\247\327\232\202@\020]P\337\262\256\203@\263\007Z\201\241\033\201@:#J{\203\262\202@U0*\251\023\251y@H\341z\024\256\251\204@e6\310$#rx@\0020\236AC\237\203@3\247\313b\342\225~@\246\233\304 p\371\200@X9\264\310v\342\202@\354\3009#\312\013\201@\203\300\312\241E\265{@\265O\307c\006\004\177@\360\212\340\177+\265o@-C\034\353\342Z\207@oi5$\356\323{@;\001M\204\215\206\201@\212\032L\303p\214|@e\036\371\203\201\253p@\177\331=yX\276y@$\234\026\274\350\035r@1\231*\030\225\271\177@\0216<\275\322\227\202@B`\345\320\242]\203@\335$\006\201U0\200@\244k&\337l\364y@\035\311\345?d\366\201@\220\245\017]\320 x@|~\030!<\337|@Y\027\267\321\000\352\177@J\007\353\377\234\201\205@\0059(a&\325|@\343\337g\\8\335\177@\302\243\215#V\353t@\361c\314]K\352\201@\032\300[ \201\330\201@aTR\'\240+\200@m\347\373\251\361\341\177@\255\372\\m\305=\204@\362\352\034\003\262\330\177@-\262\235\357\2475\200@EGr\371\017\236{@\233\341\006|\3769|@6Y\243\036\242e\201@\366\227\335\223\007\322\201@q\033\r\340\255\251x@\223:\001M\204\260v@\312O\252}\272\302|@\212\037c\356\332\215\205@\301s\357\341\322y\201@\343\337g\\8\203z@x\013$(~\t\201@\264\037)\"\303Cy@\360\212\340\177+<{@U\373t<f7v@o\201\004\305\2172\206@\316\210\322\336 D\200@\273\270\215\006\360\"\177@d@\366z\367\363\177@\025\035\311\345\277\273\201@>\\r\334)!{@\013\014Y\335\352Qz@\311v\276\237\332?\205@\017\2343\242\264\357{@\250\313bb\363X\203@\325\th\"\354-|@0L\246\n\306\031\201@\236\357\247\306\313\301\202@\3019#J\373\367\203@H\277}\035xK\203@\t\212\037c\356{~@\360\033_{f.v@\340\276\016\234\263;\200@\222\\\376C\372\254\202@\227\377\220~{\271\205@m\2132\033d4u@\337T\244\302\330\350\177@\266\204|\3203\027\202@#\333\371~j\321z@\362<\270;\353\252x@\333\371~j\274\330\201@\014\002+\207\226\214\200@\315\314\314\314\314\311\204@%\314\264\375k\363\203@\032Q\332\033|\210\203@\375\237\303|y|}@\007\353\377\034f\325\177@x\264q\304Z@{@C\034\353\34260\200@EGr\371\017\367\177@\201\004\305\217\261\266\202@W[\261\277\354\214w@\377&\024\"`Rz@e\031\342X\027\231\206@\223\030\004V\016Bv@\242\2647\370BJ\201@w-!\037t:\206@\201\004\305\2171w\202@#J{\203\257o\200@\365\333\327\201s\036{@\207\247W\3122\233{@\354Q\270\036\305\000\206@0*\251\023\320\017t@\324+e\031b\222\201@J\007\353\377\034`\203@\264Y\365\271\332lz@\'\302\206\247\327\246\200@\373\256\010\376\267\233}@\330\360\364J\331\014\202@\354Q\270\036E\315\200@\373\306\327\236\331Ut@\351H.\377!J}@\260\346\000\301\034\255\201@\036\341\264\340\205\264\200@h\263\352s5t\205@\376\317a\276\274C\204@m\305\376\262{Z\200@9\326\305m4\031\205@n\022\203\300\312\233|@\256\330_v\317[\201@\177\373:pNu\204@\005Q\367\001H\014\200@H\247\256|\226F|@\360\212\340\177+\366\205@\363\2539@02\204@n4\200\267\300\233\201@\013\265\246y\307~\177@H\277}\0358\316z@\360\033_{f\251y@?\313\363\340n\316y@\215\227n\022\203\306\202@\020z6\253\276D\203@\355\r\2760\231\"\203@\030&S\005\243\025\203@\256\266b\177\0319\202@_\230L\025\014\317\204@\350j+\366\227\177\200@\257\224e\210c\306\206@3\277\232\003\004k}@\363\2539@\260Hu@,e\031\342\330\027~@S\226!\216u\006x@\320\'\362$i\365\177@a\303\323+\345l\205@\026\373\313\356IU\201@:\222\313\177\010\333\203@|a2U0g\177@\233\3117\333\\\335x@[\261\277\354\2364\205@o\022\203\300\312+\201@\370\302d\252`\243\201@\271\031n\300gC\205@\020\314\321\343w\364w@\376\267\222\035\233(u@}?5^\272L~@$\227\377\220~Bq@\267\321\000\336\002\276\201@D\372\355\353@\251\201@\257%\344\203\236q\201@\224\366\006_\230\351\177@\010\254\034Zd\254}@C\255i\336\361\271}@Y\213O\001\260\246}@\315\314\314\314\314L\177@\333\371~j<\270\205@\243#\271\374\207zx@A\202\342\307\030\023\202@)\355\r\27605{@\262F=D\243Hz@\325\th\"l\227{@\032\330*\301\342\031{@\336\345\"\276\023<}@J\357\033_\373\275\200@\3014\014\037\221\307}@\243#\271\374\207\211\177@|fI\200\232\227\177@\014\223\251\202\321\205z@lxz\245,U\201@\366\234\364\276\361H\202@Y\213O\0010\332}@Ral!\210e\202@\352\220\233\341\006\026\200@\251\244N@\323\340\203@\351&1\010\254\'\177@\025W\225}W\017y@vO\036\026j\n\203@\200H\277}\2353|@\200H\277}\335\027\201@\214\333h\000ov\200@\231G\376``N|@\3539\351}\343\327v@\267\321\000\336\202\033t@#\333\371~*\267\203@\251\023\320D\330\310\203@\201\225C\213l$\205@V+\023~\251C\201@\0216<\275\322N\204@\336{\270\344\270R~@p\353n\236j\272v@&\344\203\236\315\363\200@\305\026\202\034\224\022{@\203\300\312\241\305\336\177@\363\032\273Du\265~@m\312\025\336\345\313~@\215\227n\022\003\031\200@\273\'\017\013\2658\200@\247y\307)\272\236\202@\370\3740B8\372\201@\007B\262\200\211%\201@P\031\377>\343\323z@\340\234\021\245\275\341\200@\365EB[\316q~@\255i\336q\n<\202@\275:\307\200\354\321}@\005\243\222:\201x\204@\232w\234\242#\230r@R\240O\344I{z@H\341z\024\256\304\203@\357\341\222\343N\361}@\255\372\\mE\037\200@\376\317a\276\2740\200@$\264\345\\\212Q{@\014\253x#\363\334\177@\'\245\240\333K\350{@\2343\242\2647\241\203@\2343\242\2647o\206@\033\236^)\313\266\202@\372~j\274\364^\177@\346\256%\344\003\230\207@\323\274\343\024\235S\202@\007Z\201!\253Hz@\312\303B\255i\200\177@\346?\244\337~\024\200@\365JY\2068\275\200@\230n\022\203@\367\200@P\0010\236A\310p@io\360\205\311\321{@\264Y\365\271\332\030z@\250\313bbsO\201@\325\347j+\366\211{@\331\353\335\037\357\032\200@\344\203\236\315\252\367y@\271\001\237\037F\221}@\376e\367\344\3411\200@\003x\013$(\363\204@<\3328b-\362q@\007_\230L\025\370\202@\227\377\220~;\270\200@\357\311\303B\255\251x@?\313\363\340\356\247z@*\251\023\320D+{@#\204G\033G\245y@Y\213O\0010[\202@\033\236^)\313\234\177@\2760\231*\030\207\202@\305\376\262{r[\201@\212\037c\356\332\030\205@\347oB!\202g\201@\024?\306\3345\257\211@\275\313E|\'\002{@\'\024\"\340\020\273z@6A\324}\000Av@\026\2073\277\032\257{@\313\241E\266\363\266\203@K\352\0044\021\203\200@\365\333\327\201s\357|@\226}W\004\377\210r@\224\366\006_\030I\200@`vO\036\026\333\177@\375\366u\340\234\000z@e\036\371\203\201\326t@y]\277`\267\234\202@\347\000\301\034=\215|@\204\236\315\252O\226\201@\354Q\270\036E\002\202@]m\305\376\3624\201@K\352\0044\221\017\202@2U0*)B\204@\376\324x\351\246\347\200@\2235\352!\032\245\207@\014{\332\341\257\270~@\254\213\333h\000X\202@\223\256\231|\263\246z@\373\306\327\236\331\024}@R\270\036\205\353\'\203@y\036\334\235\365\224\204@9EGr\371\312{@\207\242@\237\310\206\202@\'\245\240\333\313\335z@\255\335v\241\271:\204@\006\022\024?\006A\200@\223:\001M\204t\205@5)\005\335^\310v@\256\330_vO\014}@P\0010\236Ab\205@Q\332\033|\341Cs@\214\271k\ty\177\202@q\304Z|\nr{@P\031\377>\343\323w@[B>\350Y\212\205@4\242\2647xp\204@X9\264\310vm|@\001\331\353\335\237D\177@\241\3701\346\256\344y@\316\210\322\336\2405\200@D\365\326\300\326\336\204@\360\026HP\374\\\206@\366(\\\217\302\037s@[B>\350\331\216\203@\320a\276\274\000%x@=\n\327\243\360Dv@^.\342;1\212y@w-!\0374$\201@\326\312\204_\352\320t@\224\366\006_\230f\207@;k\267]\350`{@\214J\352\0044\351{@U\301\250\244N\350\201@>yX\2505Ez@\020u\037\200T\275}@\347Ws\200\240+\201@\360\242\257 M\272s@\004V\016-\262^z@\226\347\301\335\031\231\200@\247y\307):\325{@m\312\025\336e\007\200@\253>W[\261J\177@\007_\230L\025\254\205@\324+e\031\342\006|@0L\246\nF\177\177@\027\267\321\000^M\200@2_^\200}o\177@\237\310\223\244kM{@\316\210\322\336\240\235\200@xz\245,CM\177@K\340\326\335<\341~@0/\300>\272z\202@\023~\251\2377\303\177@\202sF\224\366\016v@|\325\312\204\337Tu@\306m4\2007\034w@\227\377\220~\373\217\200@\312\276+\202\377Yz@\272\362Y\236\007\375z@\t\212\037c\356]\200@>\\r\334)0w@\206\311T\301\250\342\201@\200\267@\202\"\250\200@\331=yX(%\201@\361c\314]\313\336\201@b\241\3264\357\363\210@\213\303\231_\215;\202@\237\315\252\317\325\033\200@\364lV}\256\007y@\245\302\330B\020\242v@g\320\320?A\013\200@\016-\262\235\357\004~@RI\235\200f\016\204@\214\333h\000/\231\203@<\302i\301\013\366u@scz\302\022\271z@\326\312\204_\352b\201@\366\013v\3036xw@!\037\364l\3262\200@\362\322MbP\237\202@\n\364\211<I\372u@\374\336\246?\273\373\202@+\366\227\335\023\333\206@2\346\256%\344|y@\350\331\254\372\\q\202@\350j+\366\027\'\201@v\025R~\022r\210@\265\246y\307)\212\203@\027\331\316\367\323\305\200@8\370\302d*\374\205@\026\2073\277\032d{@\347\207\021\302#-\200@6\315;N\321\273\203@\320\263Y\365\271\242\206@\260\376\317a\276\350\203@T\343\245\233\304\313\202@|fI\200\032\311\203@-&6\037\327 \203@P\031\377>c\031\202@\'\024\"\340\020\374\202@+\030\225\324\t\016y@\207\247W\3122p}@\036\341\264\340\205\346\204@\276\237\032/]p\203@\223:\001M\204\214\206@m\342\344~\207+\202@V\232\224\202\356\243\202@\006\022\024?\006^\205@-\317\203\2733\222t@5^\272I\014\023\202@\246\203\365\177\016\311z@$(~\214\271Pz@\373\256\010\3767\252z@#\303*\336\310\235z@\250M\234\334\357Y{@2w-!\037\242\200@@\023a\303\323e\206@2U0*)\321\201@\245,C\034\353\364\203@\234P\210\200\303V\203@^F\261\334R\252~@\362\322Mb\020f~@\254\034Zd\273\342\202@\020\344\240\204\231\206|@\243\222:\001\315\341\201@xz\245,C@\205@_\230L\025\014\306\202@d\227\250\336\032\261v@W[\261\277\354\363\177@\362\322MbPX\205@?\306\334\265\004\005\203@\235\021\245\275\001\320\201@\375\366u\340\234~w@n\022\203\300\312\"\206@(\203\243\344\325\305z@\251\244N@S\276\200@\003+\207\026\331\254}@\001\336\002\t\212\245z@\267b\177\331=\025z@\231G\376`\340\351t@\375\366u\340\034\303{@\270@\202\342\3072\207@\026\2073\277\032G\204@\370S\343\245\233N\201@\266\2711=a\005z@\344\203\236\315\252\333\177@j\331Z_\244\336{@6\310$#g\210}@\033\027\016\204dT\177@\233\341\006|\376\177}@\033\231G\376`\223\200@3\304\261.n\214\177@\342\351\225\262\014\n\203@\371\275M\177\366y\201@\2068\326\305m\237y@4\200\267@\202\022\204@\342\036K\037\372\227\205@\351\267\257\003\347E\201@\231*\030\225\324\375u@\376\317a\276\274\303\200@\246\233\304 \260|\200@\001\331\353\335\237r}@\245\275\301\027&my@\360\242\257 \315\221y@\033\r\340-\220#\205@\367\006_\230L\000\204@\035Zd;_vw@)\355\r\2760\256}@|a2U0pw@\316p\003>\177\256\202@\211A`\345\320\033x@-}\350\202\372\207w@\320\270p \244\212\200@\231G\376`\340a\204@\336\345\"\276\223\347\204@\023a\303\323\253\243\202@\177\373:p\316Z\202@o\360\205\311T\007\205@;k\267]\350|y@\352\225\262\014q\264t@c\177\331=9W\202@\334F\003x\013\307\202@g\325\347j+K\203@\270\036\205\353Q.~@\026\336\345\">4y@\240\211\260\341\251`\206@\323\301\372?\207l\200@\325\347j+v\255\203@\276\373\343\275j\014x@)\005\335^\322+|@S\n\272\275\244\265\200@\246\233\304 \260\245\204@V\232\224\202\356\336r@\026\373\313\356IV\202@\r\345D\273\212\241x@x\006\r\375\223\361\177@j\331Z_$\036\201@jM\363\216\323\350\203@\372~j\274t\315~@*\035\254\377s\006\177@\240\211\260\341i\005\203@\217\344\362\037Rkz@\341\006|~\2309~@ \322o_\007\254v@[B>\350\331`y@\312\303B\255i\347u@\226>tA}\261z@\324\262\265\276H\345}@F%u\002\032\376s@\357\341\222\343Nz~@\365EB[N\201}@B\324}\000R\261v@\311\345?\244\337+~@c\177\331=\371\302}@\304B\255i^*\200@\263\357\212\340\177\274~@\345~\207\242@\tw@\223\3367\27661\202@\226&\245\240[\r\177@\231*\030\225\324/\204@\2657\370\302d\345}@;\252\232 *\004\205@\233\346\035\247hP\201@\023~\251\237\267\317\201@8\370\302d\252\341y@4\371f\233\033\255}@Zd;\337\317oz@\343\245\233\304 /z@d\307F ^u\202@HU\023D\335\355\177@\352x\314@\345~|@\'1\010\254\234\207\202@\214J\352\0044x\177@\341\356\254\335v6z@\2348\271\337!\250u@\264\310v\276_\327\201@\327\243p=\212\243{@\266\363\375\324xAy@d\314]KH\360\200@\206 \007%\314\235|@\t\212\037c\356\371{@\223\3367\2766s\205@\326\342S\000\214\205{@\300[ Aq{\205@I\235\200&\302\234z@\337T\244\302X\267|@\031s\327\022r\317\201@\2348\271\337!\340}@\177\373:p\316Y\200@9\326\305m4h\177@\224\366\006_\330j\203@r\371\017\351\267\253~@\035Zd;\337\210\177@\270\222\035\033\001>}@\242\271N#\255rv@\013$(~\214f\204@]m\305\376\262\223p@\206\311T\301(\033|@\360\247\306K\267\037\202@j\301\213\276\002!\201@\327\022\362A\017\301\204@A`\345\320\"u\207@\347Ws\200\240\257\202@\352&1\010\254\204\201@\317\240\241\177\202[w@\200H\277}\335_\205@w-!\037\364\205~@\215(\355\r\276\324\200@\020\006\236{\217Sq@9EGry\216\206@\270\252\354\273\"\363\177@\355\236<,TY\203@]\334F\003xk|@\347\035\247\350H\\\200@\223\035\033\201\370k\204@\270\222\035\033\201\300{@\007\360\026HP+\200@:\351}\343kHw@S\221\nc\013\222v@\035 \230\243\307\005{@\035P6\345\n\241z@T:X\377\'\336\200@[\261\277\354\236\027\204@\374\251\361\322M\261~@\374\251\361\322M \203@>yX\2505\007x@\261\277\354\236<\351\202@:\351}\343k\344y@@\244\337\276\016\262\177@[\353\213\204\266\223y@\263\014q\254\013\275\201@K\2608\234\371\203{@\227\377\220~;\350\200@\305 \260rh\315y@z\245,C\034\264\202@\317\017#\204G\023{@yX\2505\315f\177@r\371\017\351\267\'\200@\0216<\275\322mz@\237AC\377\004P\200@)\325>\035\217\361z@\211\322\336\340\0138\202@e6\310$#h}@D\213l\347{\336\205@\371\275M\177\366\212\205@x\234\242#9\376\201@\254\255\330_\366\242\177@j\336q\212\0166\211@\326\342S\000\214\210z@MOX\342\301\362\201@\016-\262\235o\320}@\302\213\276\2024\350y@\270@\202\342\207@\203@H\277}\035\370\264\200@F\266\363\375\024<\202@\013F%u\002\313\200@\260\003\347\214([\200@O\215\227n\022Kv@\256G\341z\224]y@\347\000\301\034=|y@~\0358gD\346\200@\271p $\213fy@^F\261\334\322\305|@\332\033|a\362=\200@\314\177H\277\275\'\201@v\345\263<\217\375z@e6\310$#\004}@W[\261\277\354\276\203@\237\260\304\003J<y@l!\310A\t\354z@\277\016\2343\242\030\206@\303d\252`\324\215\200@\0358gDi\326|@\252}:\0363\225\200@\230\027`\037\235\354v@\033\330*\301\342\005y@\036\242\321\035\304\312~@\316p\003>?\247y@\270@\202\342G?\200@\323\202\027}\005\245w@:;\031\034%\257{@\240\032/\335$\215y@x\013$(~\272x@\232w\234\242\343\307\207@tF\224\366\006G\202@\307\265\241b\034u|@\336\375\361^\265v\210@\200H\277}\235\272\177@6\253>W\333\376\201@\246\362v\204\323\246|@\024?\306\3345v|@\311\315p\003>nz@\013$(~L`\201@0/\300>:n\204@\347\035\247\350H\001~@\323\336\340\013\223\360q@M\241\363\032;\356y@V\232\224\202\356\312|@?\313\363\340n\022\203@\375\366u\340\\\017\206@\244\337\276\016\234\322v@\325\th\"l\273\205@_)\313\020\307\265\202@w-!\037\364\367|@\025\214J\352\004\310\202@\254\034Zd\273\335\202@\210\371\362\002l\"t@\264\310v\276\037a\200@\362\322Mb\020\231\202@\223\306h\035\325\366|@c\177\331=\371\007x@#J{\203\257\207z@\301\034=~\357\233\201@\202\342\307\230\273\211{@\262.n\243\201\364}@N\321\221\\~|z@\263{\362\260PI\202@\273\362Y\236\007|x@5\3578E\307Uz@T:X\377\'\244\202@p\323\237\375\310\343\201@\227\377\220~\273J\202@\024?\306\3345\366\201@\331\316\367S\343r\177@\323\274\343\024\035U\201@:\222\313\177H\013~@\031\250\214\177\337\000\205@\361\364JY\206Y\200@\340-\220\240\370a\200@\200\267@\202bD\201@M\020u\037\000\016}@\"\303*\336\210;\205@\270XQ\203izx@\333\371~j\274N}@\231G\376``H~@\354/\273\'\217M\201@s\327\022\362\301O\205@,\324\232\346\035\251{@\3603.\034\210B{@\260\346\000\301\034\203\203@\016-\262\235\357\361{@\214J\352\004\264\343|@\354/\273\'\217\306\204@\355|?5^u\203@\n\334\272\233\247/\177@\321\221\\\376\303\307y@\334F\003x\013_z@\224\3367\276\366\t~@_\007\316\031Q#\177@YLl>n%\204@\263\007Z\201!s}@`vO\036\226c\204@fp\224\274:b~@V\232\224\202\356H~@\247t\260\376\317\r~@S\n\272\275$\007{@\362$\351\232\311\317z@I.\377!\375;\200@\211\322\336\340K\374\206@\002\361\272~\001-\201@\236\352\220\233a\314{@W[\261\277l\305\201@\036\026jM\363\374\203@w\326n\273\320,~@\\\254\250\30141\203@\214J\352\004\264\255y@p\353n\236\352\335\201@\364\303\010\341\321\354q@\020u\037\200T\237t@\312O\252}:\004\201@\236\322\301\372?$~@b\241\3264o\354\202@\327\022\362AOw~@\370N\314z\261\246{@\316\210\322\336`V\201@\341\006|~\030C|@\026od\036yY\201@~\0358g\304\347\200@\016E\201>\221T{@\366\234\364\276q\027\205@rr\277CQ\236|@\261\341\351\225\262\002\202@\\U\366]Q\353\201@\225M\271\302\2732~@\337lscz\013z@@\244\337\276\016\261{@\206B\004\034Bt{@q\254\213\333h\177z@K\352\0044\221\322\204@\323\301\372?\207\007~@Xs\200`\316\224\202@\r\253x#\363|r@\210\364\333\327\001\357\201@\266\370\024\000\343w\202@]m\305\3762\013\205@w\326n\273\320\276~@h\263\352s\265\272|@A`\345\320\"\027{@%\314\264\375+[w@\340\234\021\245\275 \201@^.\342;1\rw@[\273\355Bs^z@9EGr\371<~@\315\314\314\314\314\365\207@\302\206\247WJ;\202@\276+\202\377\255\225\202@?\306\334\265\0047\210@l\t\371\240\'\216\201@\360\242\257 \315-\202@\305\2171w-\337\203@\002Hm\342dM\201@\340\234\021\245=\302y@\265\241b\234?\254~@K\310\007=\033\001\200@\001\336\002\t\212\177\205@4\0216<\275\212\177@\374\251\361\322MX\200@\370\302d\252\340~\201@\261\277\354\236\274\214s@h\263\352s5\013\202@\3333K\002\224\013\202@\013$(~\314$\200@\232w\234\242\343\177\202@HU\023D\335p\177@\305\224H\242\227\367\202@\362<\270;\353\256|@\'\240\211\260ah\201@\314gy\036\334\206~@\242\013\352[\346_w@h\"lx\372\254\200@\312\216\215@|\273\202@n4\200\267@\007\177@\274\226\220\017z4\200@\336q\212\216\344\231\200@}\'f\275\030\364\177@u\223\030\004\326\005}@-\262\235\357\'L\201@\177j\274t\223Jy@\247y\307):\315\200@\323jH\334c\213y@P\215\227n\222\246\207@\326\342S\000\214 \205@\204\330\231B\'\006\200@\005\305\2171w\010\200@\334\334\230\236\260r\201@h\221\355|?\240z@\376\016E\201\376\236\202@e6\310$\243\357v@\211)\221D/\003\177@\032\300[ A\236\205@\237\310\223\244k\277w@K\310\007=\233\360\201@\004!Y\300\304\324\207@q\254\213\333\350;\205@2w-!\2374{@MOX\342\001\232r@\',\361\2002\013\205@ \322o_G\210\200@\252ek}\221\213\201@\244k&\337\354\337\202@\234P\210\200\303\204x@D\335\007 55\204@\326V\354/\273\001\203@h\"lxz\033\205@\233U\237\253\255\000|@m\342\344~\007\217~@\022\245\275\301\027\344\202@\252`TR\'\240|@]\026\023\233\217\342y@\375\207\364\333\327\351s@\357\311\303B-\206z@\210c]\334\306\377u@-\262\235\357\247:\202@\367\006_\230L\262\201@\340\234\021\245\275\200~@\252\324\354\201V\203\201@Ral!\010\221\206@jM\363\216\323\343\200@\245N@\023a\230z@\226!\216uq\177\200@\364lV}\256\212\177@\241J\315\036h\356\200@Y\027\267\321\200\347\200@q\033\r\340\355\225\203@sK\253!\361~\200@\337O\215\227\356\232\200@\rT\306\277O.\204@\270@\202\342G\360\201@I\327L\276\331yt@\271\215\006\360\226\034\205@\236^)\313\020\263\202@\342].\342;L\200@\265\241b\234?\230y@\352\220\233\341\0068\177@\271\374\207\364\333v\200@I.\377!\375\320\200@\323\331\311\340\250P\204@d;\337O\r\023\202@l\t\371\240g(s@\316\031Q\332\033rt@p\323\237\375\310l\200@r3\334\200\017z\203@\336\345\"\276\023\"\200@\212\253\312\276+\340\201@\254\305\247\000\330\177\200@n4\200\267@Pw@C\004\034B\225\337z@\230\206\341#b@\177@Dio\360\205\361{@\rq\254\213[\\\207@K\352\0044\021\"|@\3014\014\037\221\363\201@\t\242\356\003\220*|@\032Q\332\033\374\013\201@\024\320D\330\360)\200@m\347\373\251\361\306|@K\310\007=\233\367\202@\255\335v\241\271[\201@g\270\001\237\237\335\200@\334\364g?\322\371\202@?\313\363\340nA\200@_^\200}4t\202@\2235\352!\232Q\201@\277\237\032/\335\254\203@aO;\374\265\366u@|a2U0>\201@o\022\203\300\312\200|@\036\242\321\035\304\315\201@h\221\355|\277]\202@\352x\314@\345\224{@I.\377!\275\017\202@\312\303B\255i\324\202@\354Q\270\036\205\032\202@\303d\252`T\t\200@\260\376\317a\276>}@\237\260\304\003\312\233{@s\327\022\362\301.\202@_\2652\341\227\205\201@\233\346\035\247\350f\200@9\264\310v>\364\204@\274\005\022\024\277\311\200@\211A`\345P%\200@\343\036K\037\272p\177@d;\337O\215\223\200@\345\320\"\333y\220~@0\330\r\333\026\317x@\226>tA\375\301r@p\323\237\375HZ\204@\210\364\333\327\201\246\201@0G\217\337\333?\177@R\'\240\2110\247\201@\004!Y\300Di\202@\020z6\253\276x\205@\323\301\372?\007\260\177@\306m4\2007\022\205@\'\275o|\355P~@\360\242\257 M\032\203@\241\3264\357\270\013\203@\331_vO\036U\200@\337lscz\224~@\210\205Z\323\274R\203@(\017\013\265&\212\205@\236\230\365b(yv@\370\3740B8\224\204@\367\344a\241\326\325\203@\233\3117\333\\\355q@\024\256G\341\372\320\201@\204\231\266\177\345\211\177@\214\271k\t\371\262\200@\250\214\177\237q\356x@o\201\004\305\017\365\200@\301\034=~\357\001\201@*5{\240\225Xy@\016\2760\231*\005\202@\254\255\330_v8z@\315X4\235\235\372x@\331\353\335\037\357\361\201@\343\307\230\273\026\221\201@\r\375\023\\\254Vx@x\234\242#9\247u@{Nz\337\370\352t@\232w\234\242#\215}@K\310\007=\233cw@\224\207\205Z\323i\201@\232\231\231\231\231\256w@\362\352\034\003\262w\177@#\333\371~\352-z@h\"lx\372\032\201@\177j\274t\223\225~@\244k&\337\354\367\201@\370S\343\245\233X{@\360\247\306K7\342~@\330|\\\033*[|@\033\201x]\2771\203@\376e\367\344aO~@\361\364JY\206\300~@RI\235\200&K\200@\204\330\231B\247\310\200@\027\267\321\000\336\317v@\035P6\345\n\212\177@\2760\231*\030H\202@\345\362\037\322o\226v@d;\337O\215^\177@\371\240g\263\352%~@\031\342X\027\267\354y@ \322o_\007\007\201@\303\323+e\231F\203@\312\246\\\341\335\255\200@\202\342\307\230;\'\202@u<f\240\362\\\205@\365\333\327\2013T\201@]\364\025\244\031#|@{\024\256G\341\032\204@\313\020\307\2728z|@\321\221\\\376\303Xx@?5^\272I\344\200@R\270\036\205\353T}@\220\245\017]P:z@\205B\004\034B\325y@\035Zd;_\212{@\260\376\317a>I\202@\232w\234\242\243n~@:\222\313\177H\025x@x\356=\\r(x@\375\207\364\333W\033y@\'1\010\254\034\221\201@\034\353\3426\032\275\201@\226!\216u\361\330\200@\006\022\024?F\022\202@\037\371\203\201\347]\203@}\320\263Y\365\223\204@?W[\261?+\204@\003x\013$(N|@\376\267\222\035\0337}@\2000\360\334{\271z@\023f\332\376\225/\201@\226C\213lg\026\200@\371\245~\336T\351z@\324\232\346\035\347\254\202@=\n\327\243p\206\200@vq\033\r\340\027\201@u{Ic\264\230{@\312\276+\202\377M\200@\305Ue\337U\031\200@\357\311\303B-\220u@[|\n\200\361\270x@0\273\'\017\013\240\177@d\307F ^yw@\313gy\036\034J\202@r\371\017\3517\016\200@\352\220\233\341\206\177\201@\206 \007%\314\357|@\345\320\"\333\371$z@\215(\355\r\276\201p@\222\343N\351`\325o@\200H\277}\335\026\202@\002\232\010\033\036Vr@\024\256G\341:f\200@\003\t\212\037c^w@\270@\202\342\307T\200@{\275\373\343\275}s@\217\344\362\037\222\354\201@\335$\006\201\025U\203@\237\253\255\330_k\177@2w-!_\250\203@,e\031\342X\365v@\343\245\233\304 \007w@\354Q\270\036\305\227\203@;\001M\204\rVy@\267\321\000\336\302\013\201@B>\350\331,\247\205@\271\001\237\037\306<u@\033\236^)\313\271}@\330|\\\033\252\320}@\323Mb\020\330U\203@\216\006\360\026H\267\200@:\222\313\177Hx\201@\204\231\266\177\345\315|@=\n\327\243\360\035\203@q\033\r\340\255)\206@\276\301\027&S_\177@\301\034=~oZ\200@\237\253\255\330\337\272\200@\233U\237\253\255<x@\022\245\275\301\227*\203@\227\220\017z6Sw@\242\2647\370\302k\203@\375\366u\340\234\360\177@}?5^\372\014\200@\034|a2U\266w@\240\241\177\202\213\242}@D\3058\177\023\"z@h\"lx\372\037\202@\210\205Z\323<\212\200@\222\355|?5H{@\3014\014\037\021S\202@\025\035\311\345?\030|@@\373\221\"2\\|@\214\271k\tyE\203@\347\035\247\350H&\177@\216\314#\177p\270\201@aO;\374\265\221}@z6\253>W\210y@G\346\221?\030\022\200@~\030!<Z=w@\000\000\000\000\200\325z@5^\272I\014mu@\351&1\010\254xu@\001\331\353\335\037\237~@\314\356\311\303B\246\204@p\316\210\322\336lp@\013F%u\002>\177@F%u\002\232\232{@\214\303\231_\315G~@\324\232\346\035\'\002x@\0059(a&\313w@\013$(~\214\250t@\3127\333\334\030\220y@P\031\377>cR|@\255\335v\2419Y\204@\325x\351&1{\177@\304|y\001\266\370\200@[\323\274\343\024:\200@\316\031Q\332\233?\200@q=\n\327#\177\200@\227\377\220~\273\\\202@\253>W[1\331\203@\2348\271\337\241#\200@|\'f\275\030\300x@\271\001\237\037F\304~@F%u\002\232\344\205@\240\211\260\341\351\025{@\325\347j+\366?\202@r\212\216\344\362\357\177@q=\n\327#*\207@\037\021S\"\t\312u@\210\364\333\327\201\317w@\260rh\221mp\200@\313\020\307\2728Fw@\354\3009#\312\337|@YLl>\356\206\201@>\\r\334\251\276\177@\367]\021\374o/|@\355|?5^`\202@\230L\025\214\312\007\201@U\301\250\244\316\355\202@^F\261\334R\033\177@i\000o\201\204Z\203@g\320\320?\301\212}@I\235\200&\302}y@\263\200\t\334\272\200~@\376C\372\355\353J{@;k\267]\350\t\203@\016\025\343\374MEr@\026od\036y\200\202@\255n\365\234t\003w@\246\nF%\365\301\200@\300[ Aq/|@\335$\006\201UC\201@1\010\254\034\332\352z@\263\352s\265\225\212\200@\232\231\231\231\231\035\205@\027\267\321\000\236\216\205@\014<\367\036.-u@\236\322\301\372?d\177@\262F=D\243v|@\263\014q\254\213(\203@}\320\263Y\365B\201@^K\310\007=k\200@\263\260\247\035\276\247\204@\227\377\220~{h\203@\215\013\007B2T\200@0G\217\337\333\346}@\276\237\032/\335\203v@\276\301\027&S\364\203@\301s\357\341\222\377y@[\261\277\354\236\330y@\371\024\000\343\231\270y@\016O\257\224e\344\177@P\0010\236As{@?\214\020\036-:\200@\233\341\006|~\t~@\031\342X\027\267\367\211@\323\336\340\013\223>\205@I\235\200&\302\336\202@\263\357\212\340\377\016\200@\304=\226>t^\202@\020u\037\200T\347\202@a\246\355_\331q\200@.\377!\375\366\327~@\305\376\262{rF\204@\211\322\336\340\013\262\200@\0020\236AC\221\177@Hm\342\344~\212w@\005\243\222:\201c\204@\000\000\000\000\200\253\200@\rl\225`\361\236t@C4\272\203\330<~@\325\347j+\366\315|@;\337O\215\227\347{@aTR\'\240\373}@@\023a\303S\221\200@\257=\263$@\346|@0\236AC\377ip@q\254\213\333h\274|@\033/\335$\206r~@\364\204%\036Pk~@\240\211\260\341\351\223\203@\214J\352\0044\004}@\354\3009#J\324|@M\363\216S\364@\201@\223\035\033\201\370\371q@\274\005\022\024?\\\200@r\371\017\351\267\364}@\266\370\024\000\3438\177@\335$\006\201U\300\200@^.\342;\261\276\177@\304%\307\235RD\201@-\262\235\357\'.\203@;\337O\215\027#\206@\217St$\027-\200@\342\351\225\262\014jz@\321\221\\\376\203\261\200@\312\246\\\341]Z|@\221\355|?\265\346\204@\023f\332\376\225\370w@]\026\023\233\217b\177@\247\\\341].\244|@\274\"\370\337\312G\203@\255\365EB[\313\203@\331\323\016\177\315\350\201@\024\320D\330\360[\201@\224M\271\302\273Su@\032\300[ \301\007\200@\334F\003x\213\025\200@C\255i\336\261E\205@\271\374\207\364\333\212\210@\230L\025\214J\013\200@\200H\277}\235\033\177@\032\300[ AL}@\303d\252`T\201\200@\350j+\366\027\263\204@\031\250\214\177\337\200\201@c\177\331=\371\025\202@\345\320\"\333\371\204\201@\3171 {\275Zy@\037\205\353Q8\303\205@\341z\024\256\307\244\202@\260\346\000\301\234U\203@-C\034\353\342\363~@_)\313\020\307]{@3\277\232\003\0044{@\2142\033d\222)~@\232\231\231\231\031\340\200@\007\353\377\034f\201u@\252\324\354\201\326W\202@6A\324}\000R|@-C\034\353\342\324s@\267\321\000\336B\017\202@\210\205Z\323\274\240\200@#J{\203/]\200@)\355\r\2760+\202@\205\261\205 \007\210y@_\235c@v\341\200@P\374\030s\327\\}@?\343\302\201\220/z@s\364\370\275M\261\201@N\351`\375\237\242\177@\245\275\301\027\246\204\200@\026\336\345\">\371|@\252\202QI\235\000\200@#\333\371~\352\206v@\200H\277}\235]\202@v\375\202\335\260\246\202@9\326\305m\264\325\200@\306K7\211A\330\204@\325\th\"\254\361\200@w-!\037\364\257\201@\301\312\241E6\342\203@\320\320?\301\305\010t@\245N@\023af~@MOX\342\301\002\200@\243#\271\374\007+{@38J^\2358\206@\214\271k\t\371\013\200@\334\364g?\322\343\202@\263\007Z\201\241\014\204@\304%\307\235R\'~@\255\365EB[\241z@\331B\220\203\222\235~@\363\216St$\345\200@\033/\335$\006\255x@\223\256\231|\263bz@\001\331\353\335\2378\201@\013$(~\014\277\202@$\264\345\\\nw{@\255i\336q\n8\200@\305\376\262{r\363~@\315X4\235\235\223{@Y\027\267\321\000\256v@\005\243\222:\201\353\200@\241b\234\277\211\"\204@%\314\264\375\353\261\201@\210\364\333\327\201\024\201@\032\300[ A\'\201@Kvl\004bZ}@\2201w-!^\203@>tA}K\026~@\252\354\273\"\370\331\177@D\372\355\353\300Xz@\201&\302\206\247}|@9z\374\336fj\202@H\277}\035\270\332x@\312\276+\202\377\261\200@Y\2068\326Er\200@\013\014Y\335\352Py@\255\206\304=\026n\200@/n\243\001\374\346\200@2w-!\337\250\200@@\274\256_\260\211\177@\212\260\341\351\225\372\203@v\375\202\335\260k{@\320y\215]\342\243\200@,e\031\342X\336\177@\372~j\274t\317\200@\217St$\027X\210@\323\331\311\340(\235\200@\210K\216;\245\002}@\014\002+\207\026\242~@\rq\254\213\333\347\205@\364lV}.)~@\023a\303\323+,\203@\272k\t\371\240\013\201@\271p $\013\310\177@\004V\016-\262wu@\274\221y\344\017\250y@\316\031Q\332\033\255\201@q\033\r\340\255R\201@r3\334\200\217{\201@\333\212\375e\367^\203@\277\016\2343\"\201\203@\331\323\016\177M\004\201@\306m4\200\367k\200@\303\323+e\031)\202@\276\023\263^\214\221}@\257%\344\203\036\262\202@\363\037\322o\337\255\203@>tA}\3136x@9EGr\371Y}@\213\303\231_\r!\201@\336\002\t\212\037C\201@\262F=D\243Pz@\227\220\017z6\213}@\321\221\\\376C\241\201@\010rP\302L\221u@q\254\213\333\350\323\200@\231//\300\276e\203@\001\331\353\335\237\n\177@$\013\230\300\2553t@\374\251\361\322\315\273\203@0\266\020\344\240Ns@8gDio\211\204@9b->\205&u@\002\274\005\022\224\254\203@^.\342;\261g|@\320\325V\354/\273\201@Qk\232w\234\246~@s\364\370\275\315\260\201@\026\336\345\"\276A|@\336\375\361^5\353p@\306m4\200wG\201@\335$\006\201\025U\202@gDio\360\331y@\373D\236$]U{@#\333\371~*\202\200@\213l\347\373\251\200\177@x\013$(\376\274\201@Qk\232w\034\312\203@E\330\360\364J\372v@\206\311T\301\350\322\204@\204\236\315\252\317\\|@\001\331\353\335\037\314\200@\035\341\264\340E\001|@\304%\307\235R\257u@\316\210\322\336\340$\201@\025\214J\352\004\344\177@g\270\001\237\037mv@\246\233\304 0\214y@\001\030\317\240\341C\201@U0*\251\023\003s@\335$\006\201U\204\201@\002+\207\026Y\036\200@\024\256G\341\372\326\200@\223\030\004V\016Xy@\201\004\305\2171\"z@\2657\370\302d\320w@\365\271\332\212\375|\202@sh\221\355\374Z\200@\334K\032\243\365 z@\266\204|\320\263U\202@\342\351\225\262\214\277\202@\373\005\273a\233K\203@w-!\037t\253w@-\225\267#\234\035z@\022\245\275\301\327\337\205@\013F%u\002My@gDiop\363\200@\020\356\316\332\355\260w@\013\272\275\2441\236x@\326V\354/\273\'\203@\354\3009#\312\177\177@\207\247W\3122Rx@\303d\252`\324\271}@\210\021\302\243\rJz@\222\355|?5g\207@a\246\355_YX\200@\360\212\340\177+\230\200@f\210c]\\\202z@\353\3426\032@\353\200@2w-!_\205\204@\242\271N#-\374\177@\3500_^\300\032\202@\364lV}./y@\2505\315;\316=\200@\373\256\010\3767\310\207@\307\272\270\215\006X\203@#\333\371~j\240z@S\226!\216\365\275\201@\3603.\034\2101|@\307\205\003!\231\260\202@{\275\373\343\275\204y@\307\205\003!YAs@\317\240\241\177\202Uu@|~\030!<U}@\373\005\273a\033\013\203@hW!\345\'@w@\212\037c\356Z\212\177@\253\317\325Vlk\200@\n\334\272\233\'\351\177@(~\214\271\353\023\201@\207\341#bJ\031w@aTR\' \205\200@\027\267\321\000\236F\206@\r\340-\220\240\253\203@VC\342\036K/y@\324+e\031b\342\200@\363\2539@0>\202@\373\306\327\236\331\336~@\223\251\202QI\014\202@\363\216St$\222\202@Zd;\337Ox\177@\235)t^c\357|@\230n\022\203\300L\201@3\277\232\003\204\340z@\271\001\237\037\306\210|@F=D\243;\213n@B`\345\320\"vx@\001\331\353\335\037\372\200@\257\224e\210cay@\013F%u\002\023\205@L\216;\245\203\013}@B\317f\325\347%x@\025\035\311\345?\276\201@g\270\001\237\237)\202@\352\220\233\341\006\026y@\263\200\t\334\272(|@6A\324}\200\361|@\217St$\027Ow@?\343\302\201\020@\203@\276+\202\377-\251\202@%z\031\305\362xw@\314\177H\277\275j\201@\177\373:p\316\024y@\225e\210c\335\326\205@\205|\320\263Y\315\200@\365\303\010\341\321y|@L\246\nF%sp@~\030!<Z\221t@d\314]K\310\351\201@\261\341\351\225\262\256\200@\2235\352!\232I|@\323\301\372?\007\226{@\242E\266\363}I\207@\025\035\311\345?\005y@6Y\243\036\242;\177@\016O\257\224e\323x@\266\363\375\324x\342y@\376C\372\355k/\202@\215\264T\336\216\265~@\201\225C\213l\367\202@\013\272\275\244\261C\177@I.\377!\275\255\201@\344\017\006\236{5\177@5)\005\335^\026q@\334\327\201sF|\200@\202sF\224v\037\201@\266\020\344\240\004\240v@\271\001\237\037\306N\204@g\270\001\237\037\204~@\262.n\243\001\245t@\230n\022\203@\270\204@\023\362A\317fy\201@3\277\232\003\004fl@\305\376\262{\362\300z@\025\035\311\345\277W\200@)D\300!TY\177@w-!\037t\356\200@\336\002\t\212\037oz@a2U0*J\202@\316p\003>?qz@\316\252\317\325V\344\202@g\320\320?A\364\203@\201\225C\213l]x@\223\030\004V\016qz@\263{\362\260P7\205@\212\223\373\035\ng\201@VC\342\036\213`\200@\351H.\377!\205x@\353s\265\025\373\013~@\363\216St$P\200@\177\373:pN\023\200@\352\0044\0216{\200@\347Ws\200 \022\206@\210\205Z\323\274\262\200@\355\r\2760\231Rq@C\3058\177\023U\177@\030&S\005\243\311{@\027\267\321\000\236\010\200@\020\344\240\204\231\221{@\3539\351}#\016\211@*:\222\313\377)\201@B>\350\331\254o}@a\303\323+e^r@\214J\352\004\264\317y@\347\207\021\302#x\206@\337T\244\302X\206{@f\367\344a!\024\201@\301\312\241E6\361\201@\375\366u\340\034\317{@\204\236\315\252\317\334\200@\212\002}\"Oo\201@\200H\277}\035\342z@\2412\376}\306\244y@m\347\373\251\3618|@]U\366]\021\320\177@&\314\264\375+t~@tF\224\366\006\244\202@\000o\201\004\305\264\200@\365\333\327\201\363\314\201@\2505\315;\316\224\203@\2657\370\302\344<\204@\201\225C\213l\303\202@_^\200}\264D\206@TR\'\240\211\263{@\350j+\366\227\203\201@\320\325V\354/\226\207@[B>\350\331H}@\030\225\324\th\377~@_\235c@\366_\205@$\264\345\\\2120y@\272I\014\002\253~q@7\032\300[ \257\205@\257\224e\210cD\177@\241\363\032\273D\310}@\005Q\367\001He{@\345f\270\001\037[\204@J\230i\373W8|@\310^\357\376\270\265\205@S\226!\216u\350\177@\323\301\372?\207\037}@\255i\336q\212\334\202@Y\027\267\321\000%\200@u\253\347\244\367\313}@G\376`\340\271\267\177@w\204\323\202\027ex@\030\317\240\241\277\306\203@\223\251\202Q\311\353\200@.\377!\375\366\006\203@\307\205\003!\231\302\200@\257=\263$@\330\177@sh\221\355\374G\202@v\025R~R\233t@\2235\352!\232x\204@\316\031Q\332\233\345\202@Y\213O\0010\347z@q3\334\200\317\310{@\362A\317f\325\375u@\201\225C\213\354\310\200@S\226!\216u\221x@J\014\002+\207{y@Dio\360\005\036\203@:\222\313\177\010\026\200@\t\033\236^i\217\202@\"\303*\336\010\002\200@\026\331\316\367S\254\201@\210\205Z\323<\271\200@9J^\235c\360z@e6\310$\243)|@q\033\r\340-*|@\267\321\000\336B\213\201@\265\246y\307)\255s@[B>\350\331\362\204@G\003x\013$P\203@\343\307\230\273\026*}@\223\030\004V\216m\201@<\275R\226!\351~@m\342\344~\0076~@Q1\316\337\204\027v@\026od\036y\317\177@d;\337O\215a\204@\250\035\376\232\254:w@\305\2171w-\r\203@\315@e\374\373uv@\325x\351&\261\330\201@C\004\034B\225p~@\361\364JY\006\245\201@[\273\355Bs\250|@6\315;N\321\260\177@\334K\032\243\365\007z@7\002\361\272~\024{@\346?\244\337>\267z@\2201w-!\316\203@C\255i\3361\023\204@M\370\245~\336\275\200@\317\367S\343%\234\200@v\375\202\3350\027{@L7\211A\240R\200@[\261\277\354\036\"\202@\337\340\013\223\251\276z@EL\211$\372Gv@\252}:\036\263\000\203@\331\316\367S\343$w@\225e\210c\335\255\200@a\303\323+eZ\201@\245,C\034k\324\177@:\222\313\177HR\202@3\277\232\003\004\310x@v\340\234\021\2454\200@#J{\203\257H\200@4\0216<\275\310\177@Z\365\271\332\212\006\202@\232w\234\242\2438\202@x\234\242#9\271\202@$#ga\3173\204@T\343\245\233\304\327\200@\000\030\317\240\241\007\177@\325x\351&1&\202@v\340\234\021\245kz@\325\th\"\254\014\203@\237Y\022\240\246\347\200@\223\306h\035U\260\200@\327\243p=\212\332\177@\3578EG\362\200\206@\367\3740Bxq}@*\306\371\233\320/\177@\275R\226!\016Gu@\270@\202\342\207\271\200@\302\213\276\202\264\266z@*\251\023\320D\255\177@\0358gD\351\331\202@\016-\262\235obx@t$\227\377P-\202@}\256\266b\177\014w@gDiop;\206@\372D\236$]\305q@9EGr\371U{@\352\0044\0216\271q@K\340\326\335<\340~@\352\220\233\341\006\346}@\343\245\233\304 n\200@C4\272\203\330\204\177@\032\027\016\204d|v@H\277}\0358!{@\276\301\027&S$\202@\366(\\\217\302\274\200@7\211A`\245z\200@w\276\237\032\257\331\203@c\356ZB~\003\205@\256G\341z\024cx@\232\010\033\236^\336\202@\334\364g?R\362\201@h\263\352s\265\235q@\001\331\353\335\237\222\202@mQf\203\314\022|@+\207\026\331\316j|@\241g\263\352\363\342\204@i\221\355|?\037x@@\244\337\276\216\033q@\321\221\\\376C\271z@\340-\220\240\370\\\202@\027HP\374\030\340r@\342u\375\202\335\236z@\323\274\343\024\035E~@>\\r\334)\005}@I.\377!\375\'\200@\326\312\204_j\212|@$\271\374\207\364mx@#bJ$\321\251\177@\204\231\266\177eG\201@b\025od\236\353w@\266\204|\320\263\273\201@\000\000\000\000\200r\202@\212\223\373\035\n/y@\013$(~\014D\200@vO\036\026j\216\202@aO;\3745\311z@\256\236\223\336\367=\200@V\202\305\341L\267u@\037\021S\"\t\324u@1\010\254\034\3320x@\252}:\036\263\330x@0L\246\n\306\306\201@\253\317\325V\354\261\201@\270\036\205\353\321=\201@\206\311T\301\2509z@G\217\337\333\364Hv@\326V\354/\273\353\201@\325\th\"\354\336z@\\ A\361c\032w@\210\205Z\323\274\221z@\246\233\304 0&\202@\240\032/\335$b|@2w-!\237dv@\271\374\207\364\333-t@M\370\245~\336-\203@4\200\267@\202\240\206@\204\236\315\252\317I\203@\366(\\\217\302\245\203@I.\377!\3755\206@\344\203\236\315\252\310\204@\'\024\"\340\020C}@\241\363\032\273\304\241\177@\247t\260\376\317\341\210@o*Ra\254\247\200@p_\007\316\031<\201@\376e\367\344a\340\201@\243\013\352[\346\372{@\354/\273\'\217\233\201@\260rh\221\355\357\201@\3603.\034\010lz@0\236AC\177\266r@#\333\371~\252\333\202@\307F ^W\261~@\037\371\203\201g\272\201@\375\324x\351&\217u@8\241\020\001\307<\200@\rq\254\213\333\211\202@\221\017z6\253M\204@\300[ Aq\267~@\274\"\370\337\312\222\202@\307\235\322\301\372:\202@\036\212\002}\242\353~@\031x\356=\\\257\201@\263F=D\243\ns@6A\324}\000\236{@mV}\256\266I\203@ {\275\373\343gy@\013\272\275\244\261\305}@=\233U\237k\204\206@\223\3367\2766\177\200@>yX\250\265D\201@\351H.\377!\207w@\250\3431\003\025\367}@Ae\374\373\214\332r@U0*\251\023\353\201@OX\342\001%!\200@\372\355\353\300y\326\200@O\257\224e\2100~@q\033\r\340-\315}@\212\223\373\035\ny\204@}\320\263Yu5\201@\226\267#\234\226\300x@\016\333\026e6Cx@\306\026\202\034\224\230w@\004\342u\375\202,\201@\271\001\237\037\306\273x@]\334F\003\370\312u@\010\003\317\275\307E\204@6Y\243\036\"\276r@\357\311\303B-\227\200@V\232\224\202n\263\200@\031\220\275\336\375_{@\204\rO\257\0247\201@\306K7\211A\261\202@1\010\254\034\332<\177@IF\316\302\236w~@\377\3470_\036E\201@\252ek}\021\261p@\251\244N@\023\035p@\371\245~\336\324f\177@\262\026\237\002`3~@jM\363\216S=\177@Z\365\271\332\212\373\205@\366\013v\303\2667v@\334\364g?R\345\203@%\314\264\375k\247\203@\n\327\243p=\006|@\206B\004\034B\013\177@\341\356\254\335vm\201@\365\271\332\212\375\226\211@9\271\337\241(\203\200@\373\\m\305\376\007\200@\022N\013^\364\320y@B>\350\331,\277\204@\244\337\276\016\234\n\201@\000o\201\004\305\256\177@\266\020\344\240\004\305\201@`vO\036VT\202@\030\317\240\241\177\314w@\',\361\200\262\241\202@\031\342X\027\267\372\202@n4\200\267@\370}@\341\356\254\335\366Wy@\323Mb\020XV}@\226\267#\234\026\212v@\320\325V\354\257\225\200@\200\267@\202b\n{@\230\206\341#b7}@\024\320D\330\360\227\177@\267\321\000\336\002\345z@\201\004\305\2171\026|@&\344\203\236\215\333\203@:#J{\203\001\201@\334\327\201sFT~@\316\210\322\336`h~@\374\251\361\322\315\375\203@\274t\223\030\004\354\200@\177o\323\237\375o~@\375\207\364\333\327\324\205@|~\030!<\377\201@\345\'\325>]\241\201@\355\231%\001\352Lu@\303d\252`\324\255x@\237\253\255\330\337\376\200@\236\352\220\233a\"\177@q\254\213\333\350\"\203@)D\300!T\355~@\227\220\017z6\354\201@\262\235\357\247\306\r\201@A\361c\314\335B\200@:#J{\003\245\201@\037\371\203\201\347g\201@\250\214\177\237\261C\203@\200H\277}\035\300t@u\002\232\010\033\257\202@\243;\210\235)Oz@u\002\232\010\233\247\205@x\234\242#\271\225\205@\2235\352!\232\221\203@\315;N\321\221-\177@\320\263Y\3659\213\203@\314\356\311\303\302\232}@=\233U\237+\231~@v\345\263<\2170|@\027HP\374\230l\200@j\331Z_$\341\204@\312O\252}:\220{@\333\212\375ewA\202@{\017\227\034w&u@G\376`\340\271\366\204@\215\227n\022\003*\201@\356r\021\337\211=~@\037\021S\"\211]\200@\247y\307):\336y@\365JY\2068\331\200@\326\312\204_j\230\177@i\000o\201D\207\200@z\307):\022\020\203@\364\204%\036P\362}@\326V\354/\273\324\200@\373\256\010\376\267B\201@4\230\206\341#\326z@\270\036\205\353Q\031\202@\034\010\311\002\246\264{@\024\320D\330\360\312\201@\\ A\361c\307\200@\264\310v\276\337\331\200@$\271\374\207\364\025\212@-\262\235\357\247\216\202@q\254\213\333\350G\203@\256\266b\177Y\023\201@ \322o_G\242\201@\263\007Z\201\241\355x@\365EB[\316^z@\031\250\214\177\237.x@\260\346\000\301\234\340\177@\245\275\301\027&rx@\255i\336q\212\301w@5\3578EGv\202@\354\3009#J\336}@\257\224e\210\343&\204@\201\220,`\002\357n@\243\222:\001\rQ\202@f\367\344a!\215v@\245\275\301\027\246E\203@\323\301\372?\007 z@\027\331\316\367S\007y@V+\023~\251\261\201@\037\021S\"\211\277\203@\3603.\034\210\306}@\270\257\003\347\214\347~@\265\241b\234?\271\177@\366\264\303_\023-\203@\313\020\307\272\270\317y@yX\2505\315\023\200@\312T\301\250$\223\201@\250W\3122\304\343\205@\224\366\006_\030G\177@\026\373\313\356\311p\200@\217;\245\203\365\261|@\243#\271\374\007\'~@\270@\202\342\007m\203@\212\037c\356Z~\201@\033\330*\301\242\314\202@vl\004\342uM\177@\3603.\034\010\256x@\025\306\026\202\\\362\201@O\257\224e\010#\201@\252ek}\221\315|@K\340\326\335<\261z@;\337O\215\027\320\203@\207\341#bJmt@MOX\342Ad\202@\344\017\006\236{r\203@g\270\001\237\237\307{@\"\303*\336\210\245\202@\351H.\377!4\201@\254\255\330_v1\204@\201\225C\213\354\374\200@g\270\001\237\237o\177@\326\342S\000\014\010z@\232\231\231\231\231\311\177@q=\n\327#[\203@\323jH\334c_w@38J^\035\201\205@\331Z_$\264$w@\233\341\006|\376\243w@EL\211$z?|@w\276\237\032/\"|@<\275R\226\241h\204@\347oB!\002\t{@\312O\252}\272\352x@b\025od\236v|@\371\017\351\267\257P\202@|fI\200\232zm@\261\247\035\376\332\323\201@\374\251\361\322\315}\201@j\331Z_$L\202@\224\366\006_\330\013\200@\305 \260r\350\"\203@-\225\267#\034Sw@\306m4\200wl\200@hy\036\334\235\004}@\301s\357\341R\224\202@\247y\307):\350\201@\344\017\006\236\373+\200@\265\211\223\373\035O{@,\324\232\346\035nu@\007Z\201!\253\341\201@\003\361\272~\3018\177@{\024\256Ga\222\203@\212\223\373\035\n\225z@\033/\335$\006\250\200@m\305\376\262{\317\201@\367u\340\234\221m\177@\212\260\341\351\225\323}@\033/\335$\006\221\204@\200\267@\202\"\225\200@#\333\371~\352 w@\363\223j\237\216a\205@\363\037\322o\337\261\205@\3122\304\261.\257\177@A\202\342\307\230\014{@\306m4\200\267(~@\316\210\322\336`K|@\020\356\316\332m\370}@R\270\036\205\353\372x@\244k&\337l@\201@s\327\022\362A7\200@0\236AC\377\340|@\331\353\335\037\357\260}@\204\201\347\336C\005\203@\244SW>\313?\207@\204\201\347\336C}\203@d\314]K\310d\202@\201x]\277`C\202@\223\3367\2766\373\202@\274\005\022\024?\035\202@\032\300[ Aa\177@g\320\320?Alz@w\326n\273\320\007}@&\344\203\236M\313~@\232\217kC\305\271\177@=\263$@M\345z@\355\236<,\324Q}@\253>W[\261\205u@_\2652\341\227I\204@0/\300>\272\201\201@\216\314#\1770Wy@\210\371\362\002\354\362{@\0319\013{\332Rw@\223\251\202QI8\202@S\n\272\275\244?t@\374\251\361\322\3155\202@;S\350\274F\311z@\372~j\274\3646z@\373\256\010\3767\312~@\3436\032\300\333\243~@\023~\251\2377\003}@\277}\0358\347V\200@\327\022\362A\017\312\203@\334h\000o\001E\200@\205\003!Y\3008n@\331\323\016\177\315\226\177@0G\217\337\333\274\177@\315X4\235\035Iu@\320\'\362$\351\253\177@\274\"\370\337\312Y|@\335\265\204|P2\206@\240\002`<\203\203~@\255\372\\m\305\347t@q=\n\327#\362\200@\223\306h\035\325\036v@\014\223\251\202Q\303w@\215\227n\022\203+~@\003+\207\026\331\030|@x\234\242#\271\203\202@\316p\003>\177\230\201@\222\226\312\333\021\367y@A`\345\320\"\tz@\347oB!\002\007\200@\320\320?\301\305\333\203@\005\243\222:\001\331\200@\003\t\212\037#W\202@gDiop\252\201@!\037\364l\326\363\201@\360\212\340\177+\350x@\271\215\006\360\226\274\201@\376\267\222\035\233\307{@\3510_^\200\230{@\275R\226!\316\373\204@\001\331\353\335\2377\202@\"\204G\033G\347\177@\236\322\301\372?\312~@\341z\024\256G\234\177@S\005\243\222\272M\201@S\n\272\275$)\203@\360\205\311TA\256\203@7\211A`%\036\202@(\203\243\344\325hv@\003x\013$\250\360\202@Y\243\036\242Q^\202@\3711\346\256%\216y@/n\243\001<f\200@\247\350H.\177G\204@\240\211\260\341\251\361\201@\007B\262\200\211\371t@\214\3637\241P\252\202@\217\302\365(\\A\203@\374\030s\327\0225\202@\255\365EB[\335{@d\257w\177<\270y@\250\214\177\237quv@L7\211A\340\315~@7\032\300[ \372{@\301\004n\335\315\241x@\376C\372\355\353j\204@\224\207\205ZS{\201@\216uq\033\r\243\177@\326\213\241\234h)w@|fI\200\232<\202@h\221\355|\277\214~@\236\357\247\306\3131\205@\270\036\205\353\321\222\201@\240\211\260\341)\367\203@\357\247\306K7\006\201@\374\035\212\002}\335\201@m9\227\342*\366\201@yu\216\001Y\026\203@-&6\037\327\235\205@\232\231\231\231\231\311\200@N\271\302\273\\\031~@2U0*\251?w@\312O\252}:O\202@M\177\366#\305Wz@\301s\357\341\222_v@\267(\263A&Ov@I.\377!\375\347\201@>tA}\313xy@\235\200&\302\306\310\200@#\333\371~\352j{@\232\010\033\236\036\244\204@\272k\t\371\240\341\201@@\214\020\036mVz@\226\347\301\335\031\272\201@\314]K\310\007^\204@\255\365EB\333@\203@i\000o\201\004\377\203@I\235\200&B\017\200@s\334)\035\254\231}@\263\352s\265\025>\201@\344\3676\375Yx}@\360\371a\204pWv@\316\252\317\325\326\335\210@\263\014q\254\213\222\204@\360\212\340\177+D\200@@\244\337\276\016\023~@\251\373\000\2446\225{@\251\274\035\341\264\364}@.\377!\375\366\005\201@\242E\266\363\375\347\200@\230L\025\214\312\341\201@\002\232\010\033\036\036\201@\207\242@\237HJ\204@\027\267\321\000^y\177@\305\224H\242\027\242|@jM\363\216SI\202@\323\331\311\340(\306}@\340\276\016\234\263\004\200@\303d\252`\324\240\177@|~\030!\274\201y@TR\'\240\211\272\204@r\212\216\344r\361\177@V+\023~\251\344{@\3711\346\256%\006x@\020z6\253\276\r\205@M\025\214J\352X\203@]m\305\3762\250\201@\310\007=\233U2\202@\270@\202\342GK\201@\310^\357\3768\213\204@2\316\337\204B\330}@\241\363\032\273D\315x@JF\316\302\236+z@\347\030\220\275^\217\177@\351H.\377\241\270w@\336\315S\035r\271v@\377&\024\"\340%\201@\022\017(\233\362\340~@\252}:\036\263Az@\340\276\016\2343\236~@\320\325V\354/\327w@H\341z\024\256-{@\331\353\335\037\357\340\202@P\031\377>cp\202@\341z\024\256G\361}@9J^\235c\314}@\\\217\302\365(\013\202@\321\221\\\376\303b\200@\200H\277}\235\227\200@\\\254\250\3014By@\3122\304\261.\r{@\031\220\275\336}Tp@t\265\025\373\3133z@TR\'\240I?\200@\177\331=yX\302r@8gDio\020\202@\227\377\220~{\321z@C\255i\336\361~\201@\274\226\220\017z\370}@\033\r\340-\020p\204@\030\317\240\241?\354\200@{\017\227\034\367\321|@V\237\253\255X\243\200@\264\310v\276\237U\200@\272k\t\371 \206\200@\276je\302o\251\202@\325[\003[%\307z@\227VC\342\036\022z@\307\205\003!\031\002\201@\237Y\022\240&d\201@E\330\360\364J\370\203@/n\243\001\374\233\204@X\262c#\020\314~@\233\341\006|~\224y@\376\317a\276<O~@X4\235\235\014{\200@\\\254\250\301\264\025|@\204*5{ j{@y\036\334\235u\325\202@\342u\375\202]\245y@6qr\277\203\034\204@\305 \260r\3508\201@\031\250\214\177\2375v@i\000o\201D\235\205@\n\327\243p\275w\203@\335\265\204|PK|@TR\'\240\t\305\202@\323\301\372?\007A\201@\226>tA}\325{@h\263\352s\265\'\204@\312\246\\\341]p\201@\315X4\235\235\262w@]\334F\003\370\027z@\260\346\000\301\034\033\201@N\321\221\\\376\ny@\022\024?\306\334\351z@\265\241b\234\277\263~@\323\331\311\340\250\341\177@\216\314#\177pH\200@\360\212\340\177\253\320\205@2\217\374\301\300\366z@o\360\205\311TS\202@\226!\216u\361]\203@q=\n\327#x\201@\347oB!\002\373\201@\364lV}\256\243y@|\325\312\204\337\337r@\366\227\335\223\207my@\205\353Q\270\236\033\202@}\256\266b\377f\200@\357\311\303B\255L\201@C\255i\336\361dr@\240\211\260\341i\\\203@\212\352\255\201m\340\200@f\367\344a\341G\203@q\033\r\340\255\316\200@\202\342\307\230;:\200@X4\235\235\014Q\207@r\212\216\344rSr@\314\177H\277}\320\203@vO\036\026j\300\200@\336q\212\216\3440\200@\336\002\t\212\037\n\200@\337\340\013\223\251\016\206@6\310$#g\313y@vl\004\342uF\201@$\234\026\274\350\"\177@\243\222:\001\315Gs@\024W\225}Wyz@\031\347oB\241\010\203@q\254\213\333\350u\177@C\255i\336\261*\204@\217\344\362\037\222A\200@?\343\302\201\220,\200@\021\036m\034\261\230~@r\212\216\344\362>x@\354i\207\277&{}@\340\276\016\2343\332\200@\320I\357\033\337q|@\274t\223\030\004$w@@\244\337\276\216\356\201@\337T\244\302\330\230p@_\272I\014\002\033}@I.\377!=\203\200@\005\243\222:\001\377~@I.\377!=\211\202@`vO\036\026\264{@:\222\313\177H\230{@\360\242\257 M\251{@:#J{\203\271~@\263\014q\254\013\353\200@\302\243\215#\326{~@ni5$\356\037x@t\265\025\373Kc\201@?\313\363\340n\341\200@|a2U0`\202@\'\245\240\333K.z@\215\264T\336\216\ty@/n\243\001<_w@\336\345\"\276\223[\202@\363\216St\244~\201@Y\2068\326\305\350\200@[\r\211{,\212x@\326V\354/;9\202@\305\346\343\332Pm{@\300s\357\341\222\204}@\236^)\313\020\307\201@\323\301\372?\207u{@C\034\353\342\266\t\201@-&6\037W\313\206@K\340\326\335<)|@\363\002\354\243\323\360~@\325\th\"\354\301~@&\344\203\236\r\315\201@\3333K\002\024\324\201@\026\373\313\356\311\325~@q\254\213\333h^w@\254\034Zd;q\201@\215\013\007B\262z\201@\351H.\377!\225x@\276\301\027&\323\373\202@\255\335v\241\271H|@RI\235\200&\252\202@$\227\377\220\3767\202@\013$(~\014k}@\026\373\313\356\311\014\205@5^\272I\214\334\203@7\211A`\245\337\200@\300[ A\361\361y@\263\357\212\340\177\n\200@K\352\0044\221\352\201@c\177\331=yh\204@\264\260\247\035\376O|@)\355\r\2760h\202@\376\267\222\035\033\340t@\320\'\362$i\263x@\022\024?\306\334`\201@\363\002\354\243\323\023{@\nh\"lx]\204@\254\213\333h\000\275|@\3539\351}#2\200@&\344\203\236\315\215z@\350j+\366\227\323\177@\003x\013$\250\222\200@\361c\314]K\370}@\252\202QI\235\347\200@\333\212\375ewz\202@0/\300>\272\004\200@\274\313E|\'\211y@\232w\234\242#\302\200@D\335\007 \265\026u@\005Q\367\001H1y@\001\331\353\335\0370x@\273\263v\333\005\246x@\265\211\223\373\235\327z@\035 \230\243\307v|@B\324}\000\322Ix@\0216<\275\322\264\201@\274t\223\030\004\010\177@\005Q\367\001H\202\200@\276je\302o&\201@\270\222\035\033\201\030\177@`vO\036\026\030\201@\250\306K7\211\034|@\177\331=yX<}@\254\305\247\000\030\'z@{\017\227\034\367\233t@I.\377!\2753\201@\326\312\204_\352z\201@\362\322Mb\020\210\205@\311\345?\244_\001~@\316\252\317\325\326\260\200@\207\026\331\316\367\216\203@d\307F ^\205\203@\276je\302oM\204@\271\374\207\364\333\346|@\r\340-\220\240\331\177@:\264\310v\276\363z@\356ZB>(;\202@\247\\\341].\367z@Y\213O\0010Vx@\177o\323\237\375\274\177@X\2505\315;R\205@\005Q\367\001H\325\202@\024?\306\3345\300~@@\244\337\276\016\246~@j\336q\212\216-w@\204\236\315\252\317$\201@N\351`\375\237M|@\177\373:p\3162\201@\035\311\345?\244\001u@Y\243\036\242\321\201\177@\271\001\237\037\306\253\200@[B>\350Y\365\204@9b->\005\211\201@`\375\237\303|k\177@]\376C\372\355\034z@\033/\335$\206\370\177@\346\256%\344\003\343x@\350j+\366\227\340x@\210\205Z\323<8\205@\232_\315\001\202Qz@\371\275M\177vo\203@\207\247W\3122\220{@\263\200\t\334:\326y@\275\343\024\035IP\204@\363\037\322o\337\202\206@\314gy\036\334]}@\024?\306\334\265\237\201@\265\037)\"\303\324z@\364lV}.B\204@5\3578EGz\203@Tt$\227\177\254\200@\301\250\244N\300\214\200@,\324\232\346\035\212\205@\241g\263\352s\246\201@\342\351\225\262\014n{@2w-!\237\333}@\334\334\230\236\260\257v@Zd;\337\3178\200@\355\231%\001\352\\{@\274\226\220\017z\274\177@\212\223\373\035\212cy@[|\n\200\361\005v@\217St$\027\303y@\027HP\374\230\242~@\'\374R?o\033r@Zd;\337Ok}@\226>tA}4|@\261\247\035\376Z\034\204@\320\270p $\235\204@\317f\325\347jRz@\355\236<,\324a{@6Y\243\036\242\303y@m\312\025\336ew~@\227\377\220~{\326\201@\255\372\\m\305\375|@m\305\376\262\373\253\205@\227\377\220~{s|@S\n\272\275$\306\201@\211\322\336\340\213\340|@\325\th\",\r\205@TR\'\240\311\343\201@S\226!\216u\263\204@ A\361c\314\344~@\241g\263\352s]}@\267\351\317~\244\237\177@?\214\020\036-F\205@\373\256\010\3767\326\200@\361\364JY\206Q\207@\376\324x\351&\022\202@\222\005L\340\026\352\200@\004\342u\375\002\321\200@\365\333\327\201s\250\202@B\354L\241\363\311~@\026od\036y\274\201@\204\201\347\336C\252v@\022\245\275\301\227\017\207@\240\211\260\341i=\203@\257%\344\203\236x\200@\325\th\"l\245\202@\375\366u\340\034\215z@\3500_^\200Cy@\343\036K\037\272!~@\300\354\236<\254\201\201@i\221\355|?[~@\321\221\\\376\003\273\201@\026od\036y=\204@\336<\325!w\251\201@\370S\343\245\2331\200@\304 \260rh\273\201@\340-\220\2408<\201@4\371f\233\033\221\177@\245,C\034\353\273\201@>\350\331\254z\220\202@\033\236^)K\356\202@\307\265\241b\034Gy@\031\220\275\336\375\273r@\210c]\334F\343\203@\366(\\\217\302\267\177@\177o\323\237}[\200@\253\225\t\277\224K\204@\336q\212\216\344P\202@\366(\\\217B@\201@\335\235\265\333.!}@K^\235c@\273\177@S\n\272\275$\356\206@\271p $\013\303~@\233U\237\253\255\374\205@V\202\305\341\314\036\200@\344\017\006\236{\360\200@H\341z\024\256\364y@\334\364g?R\370v@t\265\025\373Khy@\217\314#\1770W}@=,\324\232\3463\204@&\344\203\236\315A|@\025\306\026\202\334\234\202@\256G\341z\024U\202@T\343\245\233\304\367t@2\217\374\301\000\370\202@\037\021S\"\t_z@?\343\302\201\220\033}@\336\002\t\212\237\263\200@.\220\240\370\261\226\205@\320\320?\301ET\202@\370;\024\005\372\262\177@\206B\004\034B\261z@\347\214(\355\r\277z@\223\251\202QI\236\204@F\266\363\375\0241\201@|~\030!<\223\201@\355\231%\001\352\025~@\252}:\0363\261\202@\005\305\2171\367%\206@\265\025\373\313n0\202@\023f\332\376\025\246\202@\035r3\334\200\374x@C\255i\336qA\203@G\003x\013$+w@\271\001\237\037\306\251\211@\031s\327\022r\303\203@\252\324\354\201\326\005\206@\210c]\334\306\332\200@\"\303*\336\310\024z@\215\013\007B\262\256\200@\306\304\346\343\332\362\177@\254\213\333h\0006\177@\240\032/\335\244\330\177@0G\217\337\333\t~@\rq\254\213\333\021x@\336<\325!\367\317\202@&S\005\243\022\224\200@\026\373\313\356\311\356}@\241g\263\352\363\037\203@i\000o\201\004\005\202@ c\356ZBSn@\200\267@\202\342\216s@\306m4\2007Y\177@\\\254\250\3014\206\200@vq\033\r`8\200@pB!\002\016\362w@\252\324\354\201VEy@\231//\300>\027z@\247t\260\376O\207{@>tA}\313\377u@\031\250\214\177_Y\201@\251\023\320DX\024\205@\337O\215\227\356s\200@\211)\221D/\240~@\271\001\237\037\306\355\200@>\\r\334):x@?\306\334\265\004F\202@\3539\351}#h\202@\270@\202\342\007\030\203@\366\234\364\276q\356\200@p\353n\236\352\357t@\307\265\241b\034\034}@\264q\304Z|\023\177@m\342\344~\207(w@\212\216\344\362\037\245\202@\302\206\247WJN\203@\310\230\273\226\020\234\201@&\344\203\236M\324|@m\312\025\336\345\232\204@xz\245,\303\020\201@\305\376\262{\362\211\203@\020\351\267\257\0034\204@\',\361\200\262\214\205@\316\240\241\177\202\333z@8\370\302d\252#\202@\004V\016-2\341\201@4\200\267@\302x\205@{\024\256Gat\202@\326\342S\000\214\357|@<\203\206\376\311%\203@\241\363\032\273\304|v@\341\006|~\030\233\200@\037\021S\"\211\322|@(\203\243\344\325<{@\374\030s\327\222\245\202@\"\375\366u`E\204@\377!\375\366u\233\205@\274\005\022\024?\342}@\364\375\324x\351T\203@\307):\222K8\200@\036\212\002}\"@z@\274\n)?\251P{@9\264\310v>\r\205@\256G\341z\224\223\203@\256\266b\177\331\n\202@j\336q\212\216\004|@\2760\231*\030\262\201@\002+\207\026Y\311\202@\272\332\212\375e\274\202@\246\233\304 \360]\202@/n\243\001<\344|@\305\224H\242\227\360~@8\340\363\303\010\217z@\035\341\264\340E7{@\334c\351C\027\366}@G\376`\340\271d\177@w-!\0374\302\200@\264\260\247\035\376Jz@\013$(~\214#\200@\377!\375\366u\353\177@\306\334\265\204|\317z@J{\203/L+z@\317\367S\343%\311\201@\314gy\036\334\263{@3\304\261.n\242w@\3127\333\334\230\233x@\312O\252}:5~@\037\371\203\201\347\352|@\275\343\024\035I|}@^\272I\014\002\222\201@\317\367S\343\245\024y@`^\200}t\274z@\314\177H\277}>\200@9z\374\336f\376\201@\\\224\331 \0239{@\323\301\372?\207\026{@r3\334\200\3173w@\347Ws\200`\200u@i\030>\"\246O|@\3274\3578\305\246\202@\272I\014\002\253\220p@\003x\013$(\314\200@\031\220\275\336\375S\201@\024\256G\341z\374\200@#\363\310\037\014\340}@\'\245\240\333K]y@\305 \260r\350(\201@\037\205\353Q\270\333|@D\335\007 \265ys@\346?\244\337>\331y@\316\210\322\336`\367\202@\2657\370\302de\202@\212\223\373\035\n\237\200@\317\367S\343\245\344\204@\\ A\361c\023\200@\344\024\035\311\345\n\203@|~\030!<\315\200@\232\010\033\236\336\260~@G\346\221?\230\203v@\305\224H\242\227\003\203@\014\002+\207\226\352\203@v\025R~\222\324\201@\020\344\240\204\031O{@1\010\254\034\332\'w@\200H\277}\035(\206@q\254\213\333\350\247\204@\357\247\306K72\201@\252\274\035\341tw\202@B\354L\241s\256\202@\200\267@\202\342\032\202@#J{\203\257\265\200@\325\262\265\276H\253y@\266\363\375\324xx}@\214l\347\373\251\351}@\031\220\275\336\375\203}@\2348\271\337\241\207{@2w-!\337\226\200@9b->\205\262\200@\\\254\250\3014+\200@jM\363\216S\023\204@\306m4\200\267\226\200@\007\316\031QZJ\202@\023a\303\323+\234\203@\254\213\333h\000\"}@Zd;\337\317\365\202@8\370\302d\252\262|@\372\355\353\300y\355\204@\263^\014\345\304\315~@0\236AC\377\005}@\253\317\325V\354i\177@\227\377\220~\373\031q@\347\214(\355\r\343\177@\356\353\3009#\006\203@\313(\226[Zf|@\241b\234\277\2111\200@\321\221\\\376\003\363\201@\217\374\301\300\263\267\201@\265\025\373\313\356y\206@~\214\271k\211\211\201@\036\242\321\035D\265\210@\035\311\345?\344\363\202@\327\213\241\234h\275~@\204\rO\257\224\256\202@\342u\375\202\335/|@\025\035\311\345?\254z@B\225\232=\020\355\203@\371\245~\336\324\032\200@A\361c\314]h\200@\260\346\000\301\234\271y@#\333\371~\352Mw@\204*5{ Q|@\005Q\367\001\310\335\200@o*Ral\237s@5\3578EG\315\177@\254\255\330_v\310\177@:\222\313\177\210\216\200@\252\274\035\341\364\307\200@\rq\254\213[\021\203@\"\375\366u\340J\203@S\226!\216u\332\202@\276+\202\377-\273\201@\210\364\333\327\201\215w@\236\352\220\233aOy@c\177\331=yl}@E\266\363\375\324m\207@\204\231\266\177\345\001\201@2U0*\251oy@t\014\310^\257a\202@\256G\341z\224K{@\201\220,`\002O\203@\347\030\220\275^\003\201@\275R\226!\316\356\201@`vO\036V\026\204@\3436\032\300[#\206@\242\2647\370\302-\203@\346\256%\344\203L\201@\200\267@\202\342\310v@\353\3426\032\300\013~@F\266\363\375\224%\200@e\252`T\322r\203@\257%\344\203\036\276\203@2U0*\251f\205@\322o_\007\316x{@\375\366u\340\\s\200@`vO\036\326\213\203@\333\371~j\274G{@D\335\007 5/x@\311v\276\237\332 \203@\320\270p $\216}@\203\300\312\241\0050\200@?\313\363\340\356\324\200@\0054\0216\274#\200@\204\330\231B\'C\204@\005i\306\242\351\014w@7\002\361\272~C~@\312\246\\\341]\323r@1\231*\030\2256~@\304B\255i\336\263\201@\007Z\201!\253F}@\rq\254\213\333\277\204@\242E\266\363}\223\201@!Y\300\004nTs@\\\254\250\301\264Vw@w-!\037t\326y@\230\300\255\273yTp@\344\203\236\315\252\344\201@\3711\346\256%\367\203@\333\212\375e\367\361\201@\365\363\246\"\025bu@#\333\371~j\320|@a7l[\024<z@;S\350\274\306\313|@Y\027\267\321\000S\204@[B>\350\331\226\201@\013\265\246yG\322\200@\377!\375\366u\354w@(\017\013\265\246dy@?\343\302\201\220\375p@\360\247\306K\267\271\201@\177\373:pN\326\200@\242E\266\363}z\204@\246\nF%u\245\177@P\215\227n\022\320\203@/\335$\006\001\266\202@\013\272\275\2441\374w@W[\261\277\354K\206@\266\204|\3203T\203@\003!Y\300\004\302z@+\207\026\331\316b\203@\377&\024\"`\377\200@\022\024?\306\334\361}@\017\2343\242\364s\200@Mg\'\203\243\363v@\224\3367\276\366S{@B\324}\000\322\235}@\203/L\246\nC\200@\345\'\325>\335\354\200@\257\224e\210c\344\200@vO\036\026j=u@\022\215\356 v\275\177@\274\n)?\251S{@\325x\351&\261\335\201@H\277}\035\270\022\200@\246\233\304 \260\207v@\3122\304\261.\371\204@\354/\273\'\017/|@\237\310\223\244\353N|@z\307):\2229\201@vl\004\342\365\365\203@\244SW>\313q~@\216\006\360\026H9\203@EL\211$z\223~@|fI\200\032\367{@\261Pk\232\367Q\200@p\316\210\322^\231\204@\307):\222\313!w@\"\303*\336\010\231\200@\215\234\205=\355\260|@2w-!\037=\203@Zd;\337\317\222x@\031s\327\022r\267\202@\201x]\277\340f\204@\224\366\006_\230\177\203@\301\034=~oo\202@\200\267@\202\"\036\200@_)\313\020G\207\202@\352\225\262\014\361\323\201@\227\220\017z\266o\200@\221\355|?5\303}@M\370\245~\336\352x@:\252\232 \352\321|@\026od\036\371\r\200@\373\256\010\376\267\303\206@\202\342\307\230\273\252\202@\n\327\243p=\256y@\2068\326\305\355\266\204@q\033\r\340m\316\203@sh\221\355|\362x@L7\211A >\200@\341\013\223\251\002#\207@\016-\262\235/\340\202@\217\302\365(\\\270~@\312\276+\202\377|\200@\201\004\305\2171\355\202@VC\342\036K=u@0/\300>:\200\201@\004\347\214(mG\204@\035\341\264\340Ew{@\265\025\373\313n1\201@j\030>\"\346\373\202@\364lV}\256\321\203@Kvl\004b\213\177@\2657\370\302\344\305|@\343\307\230\273\226\217z@\205\360h\343\210\303y@scz\302\022*v@\341\006|~\030\325}@D\335\007 \265\311\200@p\316\210\322\336\271\203@aTR\'\240 